<<<<<<< HEAD
/**
  ******************************************************************************
  * @file    network_data_params.c
  * @author  AST Embedded Analytics Research Platform
  * @date    Tue Jul 22 14:54:15 2025
  * @brief   AI Tool Automatic Code Generator for Embedded NN computing
  ******************************************************************************
  * Copyright (c) 2025 STMicroelectronics.
  * All rights reserved.
  *
  * This software is licensed under terms that can be found in the LICENSE file
  * in the root directory of this software component.
  * If no LICENSE file comes with this software, it is provided AS-IS.
  ******************************************************************************
  */

#include "network_data_params.h"


/**  Activations Section  ****************************************************/
ai_handle g_network_activations_table[1 + 2] = {
  AI_HANDLE_PTR(AI_MAGIC_MARKER),
  AI_HANDLE_PTR(NULL),
  AI_HANDLE_PTR(AI_MAGIC_MARKER),
};




/**  Weights Section  ********************************************************/
AI_ALIGNED(32)
const ai_u64 s_network_weights_array_u64[85906] = {
  0x7f0000007fU, 0x7f0000007fU, 0x7f0000007fU, 0x7f0000007fU,
  0xf306f7be0000007fU, 0x7f76382bfad3c7feU, 0x2e57e2ffdef0163dU, 0x5abc9c0f4b48c27U,
  0x33a0aecfc0c00e7U, 0xf3c82241f3cb1bcdU, 0xc2c7f56fe2303bbU, 0x810d1eb40403d90eU,
  0xe012ceecedbe08f4U, 0x11e014fdb618fdd5U, 0x45db14f611400d26U, 0x111e7addbb7f2303U,
  0xed34011511c0ee64U, 0x31deb859e9f21a16U, 0x482d46420e23b727U, 0x4270540597e2ce7fU,
  0x24b29bf4bcbc43c1U, 0xde1e2c022e1f39d6U, 0x16f0f3ec18e31edbU, 0xfef51221d924e1dcU,
  0x3200e8cbf329287fU, 0xfc284417251dfe25U, 0xfc02ebb7d9b60e14U, 0x1be4a1b88106fbb4U,
  0x324f984f0b8a0131U, 0x53bf5102de4628f2U, 0x8226638f570b98c4U, 0xb06ee907f41U,
  0xffffcf4900003be3U, 0x29e20000416cU, 0xfffffca1fffff8a8U, 0x4781a260000015b7U,
  0x6a81e0bb5015a37dU, 0x5d0260002dbbfa23U, 0xe11bbefde78149c9U, 0xdd187f457fe74cfeU,
  0x13165dc425dde724U, 0xaafa4542d0b87fe9U, 0xed3f170b9a7f997cU, 0x14e81e7fb9f8U,
  0xffffff5a000021daU, 0xffffec3100000635U, 0x1f5000015bbU, 0x413f5a2cfffff9beU,
  0x7f3b3951903bf471U, 0x55e634f74afd2a7fU, 0x5242e147f81811bU, 0x1d8181a9e0ccab52U,
  0x11a2eabd29cc2722U, 0xd4e013ef49d458caU, 0x96cb8281feca4f81U, 0xab2984d6afbcaf99U,
  0x340afa190409U, 0x1ce60000131fU, 0x4d000002e0U, 0x2ea000000df3U,
  0xc53fb0e8fffffb81U, 0xea4040dff07f52f8U, 0x23ad507fU, 0x8111177f00000000U,
  0x81a7b67f1d7f81daU, 0x8ca5d97f6a7fU, 0xdc1f0000f1e2U, 0xb5230000c3abU,
  0xcc0a000172a2U, 0xa28198100000adb7U, 0xbd06724dd937932dU, 0x12768697814dfcc4U,
  0xd97f27eb81f4c105U, 0xc81081c238f9ef53U, 0xdab5d5cee93f159bU, 0x81130330ac1d7f4fU,
  0xbd3cc38150f4fc1bU, 0x1cb8df9bf5bdU, 0x1afffffff662U, 0x16fdfffff735U,
  0x23600000087U, 0x81b6b07b00002ad5U, 0x2d7f215442b521bbU, 0x81d940e08fc5637bU,
  0xfd13a52ef9ffe551U, 0xbc29bec264812423U, 0x1158f8099d81dfc0U, 0xef8189e6fb128136U,
  0x858119f42c05e5e6U, 0xb681fa26d9fe6839U, 0xd6f78132b0ec4e1eU, 0x7f2610e0b7b3ce4dU,
  0x27f217bd4ea7fd6U, 0x7fdf2dd7efcba039U, 0x5c47f8528f7e7a2U, 0x1bba05732236b993U,
  0x1d6391b5f2211681U, 0xe3041daa7f5234e6U, 0x981ebcaf5e47f15U, 0xaf7fd9efe362c61aU,
  0xbe5e5395ac94302U, 0x15329476f8298107U, 0x2fd08cabed1cfd81U, 0xec0981f67fcedf2cU,
  0xadff22822df96d49U, 0x4799f9e434f77f15U, 0xfd81f0d1f33f81e3U, 0xf7f29eac73eacfeU,
  0x46140d7f1308ba21U, 0x412d6e9fc5939bcU, 0xfc8191fcc281f516U, 0x1a6dd406ac6e1b1fU,
  0x5b7ff91f7fec2628U, 0x2f16d533e9f1f7a1U, 0xff2b367cdff12081U, 0x8e4bbb7f337f3427U,
  0xb50f7cc859f71548U, 0x32eb168147adf77fU, 0x4f531a81d5d9e9daU, 0xed333c79cac83e21U,
  0x81d0122981b30a11U, 0x2921bc80bb1U, 0x2f2000000a5U, 0xce5000007f2U,
  0x1000003afU, 0x1b600000357U, 0x48ffffffccU, 0xfffffd40000000ceU,
  0xa7ffffff75U, 0xcdffffffc2U, 0x2fa0000009eU, 0xfffffee0ffffff2fU,
  0xfffffdbbfffffde7U, 0xffffffdc000007c4U, 0x3950000017dU, 0x45b00000664U,
  0xbce000001b3U, 0xffffff51000001e7U, 0xcc00000221U, 0x151fffffc4aU,
  0x52c000001f4U, 0xdaf7cff8ffffff7dU, 0x15ff22341cf51ac7U, 0xd8e7dde671bcb5U,
  0xebf951d2f8370e05U, 0xfb36f40feb9907dfU, 0x7fc547fe6561694U, 0xf738fd424ffc0feeU,
  0x1e42bd81ec17819dU, 0xd8503a52357f6366U, 0xab7f5f053f813015U, 0x7f1c6a7681157f81U,
  0x722a3e0e32ef302U, 0x2add810a1a62bac3U, 0xf9812265180e561dU, 0xd8167f1304c3ff32U,
  0xb0071818f3e01e38U, 0x7fc38febf3811cc0U, 0xf2fb0014811ea581U, 0xf6d27d81272c7ffdU,
  0xf1eb65de7d42cb1U, 0xdf0d7f2be62601c1U, 0x294f55b17f9c815fU, 0x815a292088d09586U,
  0x6c687f0f81465f12U, 0xa63f367f81835222U, 0x49817805cd7f5f06U, 0xb27f4c7f8d19ec61U,
  0x761623132d7f9bd3U, 0xfb161f4bea39027fU, 0x81026cd328be817fU, 0xddfb29ef8c153a48U,
  0xefc53b16e78300e7U, 0x90f0a2a9fa9d500U, 0xfb2052dd0de73910U, 0xe704b13f0e4707bcU,
  0xf0b2bd0d5101400U, 0x133d29f0db911f7fU, 0x5581402aa968f6c7U, 0x7fb12cb407fb04f3U,
  0xe4c39205f816cf00U, 0xf21d07c8d745fc53U, 0x115481f109e83f77U, 0xc60c32050748e7e5U,
  0x42210b030e0fc911U, 0xdfd0cbf731fb293eU, 0xfffffca3f3f9fd24U, 0x4a2ffffd79eU,
  0xfffff5b6ffffff34U, 0x216e0000000fU, 0xfffff989fffffb04U, 0xb0fffffd1dU,
  0x24defffff903U, 0xffffe88a000037e9U, 0xffffffc8000022b0U, 0xfffffeda00000040U,
  0xffffecdbffffffc6U, 0xfffff710ffffebe1U, 0x14800000156U, 0xffffffd9ffffd5e3U,
  0xecfffffefdU, 0x30ecffffff1eU, 0xa0ffffff78U, 0xfffff95afffffe6bU,
  0xffffff0b00000bb0U, 0xffffec73ffffff76U, 0x78d6273700001252U, 0xc61ae4d5dc02c7d7U,
  0xda36f4063ed74f1fU, 0x32da24d5f91d4824U, 0xbb7f70edf6b3fe21U, 0x3744314eb8ead057U,
  0x7f35005c29ba48e4U, 0x363fe730dddd36f1U, 0xb3cc5ed29174d03U, 0x2f0013055ccc4e7U,
  0xece857d7b7ef11dcU, 0xbb880cf102451c1eU, 0x5b311a1306ac0bd1U, 0xea2ff67f4f0f0fcfU,
  0xa920cd9bdfe9c540U, 0x77d5f118062408acU, 0xffc6f7ccaec9b133U, 0xe1035de30dc196d5U,
  0xa2b01ced8554badfU, 0xe85f51c1a00f8118U, 0x152d00f344e45147U, 0xfa2b5e0c1bf83933U,
  0xf35142ab118100bU, 0x2232e101322409f6U, 0x1391b0c28812c2cU, 0xd0cd77dd14c2f902U,
  0xe63c02ff2074fc43U, 0x47d5951a34ee0c51U, 0xce0be7af151c84f0U, 0xeb12084f120cb3a9U,
  0x46f0b4060a7fd9b9U, 0xb815093a3b260eb8U, 0x41464f3b3e03b3cdU, 0x4a21081861f7ccceU,
  0xd52e280333221981U, 0x6a66d521b3eab61bU, 0xcafd183728ea377fU, 0x1e540bef52f8ce3dU,
  0x375099df4adebe16U, 0x22e26015487ce220U, 0xfddcfde2b44dd10bU, 0xd3aaec17362f2677U,
  0xf1f20ef156fa457eU, 0xef028f3225bcf4bbU, 0xd8f309c1daf8357fU, 0x2104c93bf8d80603U,
  0xf7041d1acbb2ad46U, 0x90e18f51a4df6bbU, 0x71b47f2fa73e244eU, 0x28bd012fd7ff1756U,
  0x16051b4cd9d01ceeU, 0xd5f3f1c7ceebf381U, 0xe6da2d973719fee1U, 0x31e8c01cd818341cU,
  0x5a462c08cecfef89U, 0xa9f7fc2939caf014U, 0xa81ef0af369b797U, 0xdff5cfdf34075f5bU,
  0xfada92eaafae1f1U, 0x156aebb5b5fdefe6U, 0x6effe2cb2f289fe5U, 0xd718d539155f1795U,
  0x175f26211f7d07fU, 0x1918f0e7466cab29U, 0x832c9ce41abb24b3U, 0x12e7193e120b4bb7U,
  0xb0ef35c52b44c73eU, 0xd3b5ffb6c3391df9U, 0x51f59242c132fccdU, 0xdd3c192fe1ce3a47U,
  0xd2ea0056e57fc637U, 0x4b23d11ee9420821U, 0xe534311ded051d19U, 0x33e1ff1e0af9a671U,
  0x3c60dee00841177fU, 0xdbc5340a0029e819U, 0xbf6808fa61a51c07U, 0x22fe213d06f1f3edU,
  0x352c1f48716079c4U, 0x8144d33952ff541cU, 0xffffea9410b27130U, 0x28cffffd90dU,
  0xffffded300002228U, 0x1112ffffe1ecU, 0xffffdfdbffffb176U, 0x2344ffffe19cU,
  0x37400001ba9U, 0xffffb2a1ffffe029U, 0xddd48109ffffcd7bU, 0x58000017d9c6909fU,
  0xe0ee2b5cdc1c5b2dU, 0x17f51b69ec8e7f27U, 0x5a43777ac6a2ee1cU, 0x1c330fc00445b67fU,
  0x15e47f5625bc672aU, 0xd71242eeeae31a36U, 0xf34181f14e290a2bU, 0x2997d764302b16c3U,
  0xa7992ce0c738e528U, 0x20b2032404580466U, 0x15aef5caf7147f5eU, 0xbfee7f4b350a0f06U,
  0x963881091277e8b7U, 0x769bcc08ec98d50dU, 0xc4616032e53ee4ceU, 0xcb1257858e29d957U,
  0xd6e62f291e00c77fU, 0xfd7fe817d6380012U, 0xbb2bd4bcadfbc72bU, 0xff184c08e17fd7d4U,
  0x411ff22b19e6e6e5U, 0xd781045c6ab6ef16U, 0xdddedd0c076950deU, 0x6e1c8b7924786dd4U,
  0x81331228326c8a7fU, 0x6d720140011d71aU, 0xf33fee274beefc65U, 0xdbeb0cea81ec1429U,
  0x2c21247f62c52dc0U, 0xdc253c0a2417bc6eU, 0x2c574a5a56226500U, 0x627fd3912d23fd04U,
  0x3a273d7f09eec4feU, 0xc231f4faf52d46ebU, 0x670a3d6442ef3147U, 0xcd0df6717fefcf94U,
  0xeb05f5c8c6d8333aU, 0xae251a05070eb1cbU, 0xcc828ea0dcf8184U, 0xce3e2510b9d5f528U,
  0xcc612f007f13320cU, 0xcafc339fe3f7dde7U, 0x8d442b81e681b7fcU, 0xd43035e4e5d0e533U,
  0xdd24d443fc786e6bU, 0x40f01e23f2332bceU, 0x26e1d9b543c37f25U, 0x8b1b3ddc163281bcU,
  0x381721f6201ec1bcU, 0xf2812c4f0ac1dfd8U, 0x7a41795f4f7c5c1eU, 0x29e4d61d7f220cU,
  0x315619cda30e98a5U, 0xe4811a282aaf040fU, 0x564702c2041c32dfU, 0xbf81e4fd27f04dd4U,
  0x4bdebf2adaac15f3U, 0x3b15ee2243aa7f29U, 0xd903f8deefcfd8bfU, 0x7f10c01000c16ef1U,
  0x7f58b706094b371fU, 0x1818a4cf37ef25f3U, 0x4ca315a02e8fc5cU, 0xea7f53df62a1302fU,
  0xe90c81c3325f2038U, 0x1e4effd968262722U, 0xeea1dd533dee13f2U, 0xd6527e810867bed9U,
  0xfc3560b43c8e103U, 0x5081b905ba1dd5d4U, 0x117fdfe92c56bde0U, 0xf8a6362ff6dbd9e0U,
  0xded2b9d801010216U, 0x97f3da09a1458e3U, 0x5b7fe4b422db31f4U, 0x1412314bdc12f808U,
  0x2fa43c8122aabd36U, 0xf44dc81c38cc11d1U, 0xcfc745a5edeff3e7U, 0x644a45e3c081c0efU,
  0x32443b24bb0ba3f4U, 0x91cded0011b7fadU, 0xd59d7f089998dde3U, 0xea055b9c04f3ab0fU,
  0x39340df766d8d6f2U, 0xe015152df2398117U, 0x897f658b33b1bde2U, 0x67c9a1c6ca93dd11U,
  0x62a333003e252cefU, 0x1fef0fe7e081f9acU, 0x7824d3e383fcbb0dU, 0x2af542ff49ed1d7fU,
  0xed7f3a8efff77056U, 0x56278e6cf4f83f4bU, 0x2c05cce7efU, 0x118000005c8U,
  0x4a3000013a7U, 0xffffff5b00000606U, 0x98100000048U, 0x17cffffffa6U,
  0x20d00000bc8U, 0x14f00000723U, 0x13ffffffddU, 0x19dfffffea9U,
  0xbd000000a3U, 0x2dcfffffa69U, 0xfffffe4e000002d5U, 0xfffffe1100000333U,
  0x36c00001079U, 0x1f3fffffaa9U, 0x5b8000002f0U, 0xfb0000037bU,
  0x5df0000037eU, 0x33000004bfU, 0xffffff6c00000139U, 0x13f000002e1U,
  0x1260000025aU, 0x80000023aU, 0xda00390a00000452U, 0xff26db9b23e510e4U,
  0x271900fc7f2f3de9U, 0xe439d633f6f359faU, 0xcdb91ab38e0ae303U, 0xd694105f5fe4ddddU,
  0x2e07f199a29fa13U, 0xefd3f212c4dec4cbU, 0x97c81415e3810c7fU, 0xc49a817f1907caebU,
  0x7fffa9efe1d37ffdU, 0x15920ceed711c5f6U, 0xe2edc3010482f681U, 0xf1c305b2391ed339U,
  0x1db8dcf167e827f6U, 0xf216a3cff1b041e0U, 0x4381d4b4cc2b31feU, 0xda5c0dd87a0aa0d1U,
  0x123a1408fadefcfdU, 0xff417fe0187ff5d4U, 0xf87f5f7f1c453601U, 0xf5813b2df428d1d9U,
  0xf49d1ce4f133ffffU, 0xfca10cd6740af6ffU, 0xd5f17081bfaeea07U, 0x7f4c5b7f81febacdU,
  0x81077f05b3a38156U, 0x7f95fa2d7fc5817fU, 0xc5c817ffb816f7fU, 0x7f8181812e7f7f7fU,
  0xfaf1de0b7f8d7fc8U, 0xb403bff6563fdf95U, 0xfff33f9b4ebbc607U, 0xe509dc95f1cfce15U,
  0xbfdbcbaf03d91ad2U, 0xe03f197bd11ef9f5U, 0xf206c00d290ddfb6U, 0xc4812bc900f1d6ddU,
  0x3632f384e15a2c0cU, 0x9ff7edde27fe9fdU, 0xddbb1acda52fc4deU, 0xf57c08e3f9def601U,
  0x7f7fbb1fdeffdf27U, 0x572322dcf4f77f81U, 0x1220f85cf5e89585U, 0x8cf49c0c9360301U,
  0x14035cf7cf0ec1efU, 0xe94b0e22ba164352U, 0x5cf2b111d581db1fU, 0xd5f9d4b3e5fb52b9U,
  0x240bc7f3ff3112afU, 0xfaeac9e7ecd844ecU, 0xd6bc20d5813ab2fbU, 0xd41d0de781f4c5f3U,
  0x263ed0df207U, 0xfffffd7200000487U, 0x20d5fffff81dU, 0xfffff622fffffc83U,
  0x1489ffffffecU, 0xfffffd1afffff90cU, 0xfffffe59ffffff03U, 0x5c600000758U,
  0xfffffe85fffff776U, 0xfffff7a8fffff02cU, 0xfffffbb900000996U, 0xfffffbd2000001f6U,
  0xfffffd44000002deU, 0xe4a000006b7U, 0xfffffd3400000090U, 0xfffffdc2fffffc61U,
  0x16fd00001d36U, 0x158700000696U, 0xfffffeeffffffdc4U, 0xfffff1d600000687U,
  0x273fffff8afU, 0xfffffe2e0000026dU, 0xe230000000dU, 0x2afa0000063bU,
  0xbac77f3e0000020aU, 0x183bbf294a12adb7U, 0x4f54d20cb2c3e126U, 0x4d2ab97deffcf324U,
  0xf038e93df84f3e33U, 0x2af35dde3966cc4fU, 0x136f584505b087fcU, 0xc4c1ea2a3429d92bU,
  0x3849665510a9ee2eU, 0xf903dfde23affb1fU, 0xe72d59463881dedfU, 0xf5d80fc8d4abc3eeU,
  0x6e0bdcfbe89a5dcbU, 0xfb24b415e5ea50e8U, 0xf3b7bec92702d526U, 0xefdec5b7f1c2f2dU,
  0x3f0f1600f2ff14c1U, 0x1e27ec6bffcf53a5U, 0x5067162a261bfaaaU, 0x2b401fdd28e505caU,
  0x1f30106d4efd5bd4U, 0xdd90630e3f609daU, 0xdd9d24120d7f515cU, 0x21502deeecd2dd05U,
  0xb197e81eeaeef3d0U, 0x4d23dd2503a4d9ffU, 0xe222bcbee2fbcbf3U, 0xfefc3bd751e6f7e4U,
  0xd10c17f1519e80aU, 0xdcb1fa0713d11ec1U, 0x25e00fbc3c53d6eaU, 0xc7e8d4fdc322431bU,
  0x422cf6dd37333620U, 0xbd12d406322ad92bU, 0xf4cc33fc3ccae4d6U, 0xcd2981c4e1bd13baU,
  0xfe28d44fe516a503U, 0x401d132846ecd58dU, 0xf0d8c14420060908U, 0x5dfbe3a4ec82123U,
  0xfbe0e83cf12e0526U, 0x26187feef5e4f9d5U, 0x2d150c24122587f0U, 0x54990d81ff3d91f2U,
  0xfed3d0a83421ec43U, 0x252310ff70fc1bbdU, 0x4e0501f95329f946U, 0xb8d00f7318e1ecc7U,
  0xe40f190404bf05b4U, 0x7abe1eebdcd8f1deU, 0x1c19e537e105fbe4U, 0x7fd258dad2fb3f1cU,
  0xc607fede2fbb3c22U, 0xcef74f12d62ecc4bU, 0x1afcd7ac182dece6U, 0xc816f62fd0cf7fbcU,
  0xad3cdcdbf0fa02c9U, 0xb302fd6bd841d83cU, 0xf72730020d2d458dU, 0x53f6a2d4169e59c2U,
  0x162e24eab6d4e2e4U, 0x7fc471ee29311315U, 0x22240f4f150c1b0aU, 0x23bbe09ee5f3d507U,
  0x410170f4192f1310U, 0xded2db09e4c258b6U, 0xd6181b99022cfac6U, 0x9735f5afafe9fe1aU,
  0xf426fd974c1b3cf1U, 0x815cfc4550fe44c7U, 0xf1f2e026249cbeadU, 0x20987111217edd7U,
  0x3f65ec43242ae7f9U, 0x81c21820fdf8f984U, 0x3815e707ed01f5d9U, 0xbed9f7a9fa26384bU,
  0xa0b2bf35382d1caU, 0x1318045d2a2103a3U, 0xfa18ffe20c315ebfU, 0x520c3a08f840131aU,
  0xda162368dd2ef1dfU, 0xa0174e54546d632U, 0x8a9aa0b07dd2d4aU, 0xde396418b4d81cfdU,
  0xcd08054408f181e8U, 0x1b0e21150cbad5c1U, 0x22e6f9fb02025103U, 0x2cebeb00f3d01b0dU,
  0x1206e87fd8ca0bccU, 0x3e33af8e216fe23U, 0xc3c90adf06533208U, 0xcad939438c650a02U,
  0xa62119ae11c860f0U, 0x9e04fa060f05812fU, 0x2c6820c2c12ff5c4U, 0xfbe4c706f8031425U,
  0xffffe2dd0fec853aU, 0xfffffed9ffffe361U, 0xeb9ffffd23eU, 0xfffff597000025dcU,
  0xffffe8a8fffff7a5U, 0xffffe4c800002f13U, 0xfffffa28000024e1U, 0xffffdf69ffffec0eU,
  0x21f101e900001ee7U, 0x5e7fc6b3bc44d314U, 0x352f732b261dfe56U, 0xb13646dc043b0b7fU,
  0x3a24ecf46e530818U, 0xea0df1e8e20d810fU, 0xc2f3d71a58aecdffU, 0x1c1563d294e58120U,
  0x427bcfd06ddf71aU, 0x4bdf9f7fbbef58faU, 0xd5c4bf1cd4eac44bU, 0xcec5264a5eb9fef9U,
  0x1777ee0a204d2681U, 0x3c1fde981a80541U, 0xc2ff24f5d5ddd40cU, 0xe606070442d47fefU,
  0xfa5045c9ba254b22U, 0x25aba17f2235555dU, 0xca2adee8d90ef70dU, 0x2dec3dca64cde2dU,
  0xe1dcaa81e9e68145U, 0xcc981c0a52362be5U, 0xabf1f3bbf71cad1fU, 0xa0f75a181d9d1afU,
  0x2023351bf6dbbbe0U, 0xbb1c521ee524ce2aU, 0x54eea2c1037f4ed6U, 0x7fd1ec01fe072a9eU,
  0x14f5dc7fac162d0aU, 0x3638390aacd92509U, 0x3f18e5f26fb50856U, 0x5a33d93107033cf0U,
  0x4d028153811925fdU, 0x6f9cf17cedddaf3U, 0xaaa669c31524e722U, 0x9fabc3ff257f126cU,
  0x1d2111052851265dU, 0xf5862e7d2d81fa59U, 0xf81ff81b2af2e030U, 0x7f32e312e6fa43b8U,
  0x7fe7d7d5b55635c5U, 0xdcd6cf5a0800d8f7U, 0x1f039f7070d1a9bU, 0x9174681f5270ddcU,
  0xeed72ee8269d2453U, 0x48b834c62c67169eU, 0x6319a81ced281e5U, 0xa8ac0229fb19e8a3U,
  0xe8fef3cdc1aa220cU, 0x94c976c7427f16b2U, 0x81cad8a2ebc7d6ebU, 0x4d7e06e65e75f50aU,
  0xf62e2cebdee5eb61U, 0xddbde960810dad22U, 0xfb019ba469eba918U, 0x6aed25b8f08160f9U,
  0xdd13ebc006adb7fdU, 0xbcdb7faa2f5d270cU, 0x906eed03eef00e6U, 0x9c1a5138e81bfc7fU,
  0xcc19e9640424f443U, 0xafc47fa8f05ba2e0U, 0xb396243efe22d5c0U, 0xcb5c29b2e2de557fU,
  0xce0f1d35ea45294fU, 0x541a043b3ee17facU, 0xba6a0138b56a42e0U, 0xdc08ad0c7a6e127bU,
  0xffc367267fdee946U, 0xdec4eec3c3142361U, 0x862257c4371f197fU, 0xfab9c7fc7f9ffbceU,
  0x41207f1bf55c9701U, 0xe838ed144ab55014U, 0xb80933085c2c3b27U, 0xcb611564411da57fU,
  0x9d4c00efb884e887U, 0x4dc4d74e6e255ad7U, 0x433afe598137ec23U, 0xc0fd187f43cc0167U,
  0xe356bc59ba36eedfU, 0xf22081256861f879U, 0xdfd65ba004ca44dbU, 0xddc9c2eeb8d01b01U,
  0xdaef4ddbd9438123U, 0xe1bfcbf91816f505U, 0x5974247668cb027fU, 0x1f5fd6bf97811167U,
  0x35b1819f4f6c7218U, 0xe4b9b5210921f693U, 0x40deef7cb582f604U, 0x9147f420e64f8116U,
  0xba96eef9a43432ebU, 0xed1e64a170e81df4U, 0xf00e553305647f30U, 0xb8097daa11dd7659U,
  0xffffff243c7f12c4U, 0x493fffffe67U, 0x6d50000010aU, 0x3b000000590U,
  0x92d0000029cU, 0x55dffffffb3U, 0xffffff30fffff515U, 0xfffff65800000029U,
  0xffffff7d0000021aU, 0x768000012aeU, 0x38d000001f8U, 0xffffff44000000dbU,
  0x619000000a1U, 0x1bc000000a7U, 0x1cbfffff14cU, 0xfffff8c2fffffc6aU,
  0x77300000142U, 0x62200000ee9U, 0x71f0000015cU, 0x171000002d3U,
  0x3e7000003d4U, 0x5bb000000c0U, 0xffffffe10000020fU, 0x1f30000037dU,
  0xfffedce5000009c0U, 0xd7f3f420f9fd2b14U, 0xfc0c11ecccece9U, 0x1b0406eff4f01ae0U,
  0xfad1e9eff9ebd507U, 0xfa05c500de032801U, 0xd21ebd0509f1e8f5U, 0xee150c7421cd2649U,
  0x360c0a39ae3ae9f4U, 0x4e431ec733ba1ec9U, 0x48b0cbd5f3e8bd32U, 0x121ec6dec6a03324U,
  0xc62ef00a07fdb5c6U, 0x1b1b053c1ab31e38U, 0x3211a73f97b70be7U, 0x5b480bd82cce34e6U,
  0x53c7f6bbe9e9b13bU, 0x1718e4b901c10a22U, 0xeaf8ed04f405d5deU, 0xe2f2fbf4f311f4f1U,
  0xf2f4e0ffdaf2fcd4U, 0x315f0f7f3fc2806U, 0xff010f01e702c50eU, 0xf1f9c0e813dc0cecU,
  0x18dcfdf10f0aede0U, 0xfceaf2eae00ff3deU, 0xe1f410c914a0eaf8U, 0xf4eceb18eb14fd06U,
  0xf80a0114f6f0ebf7U, 0xedebfa1418020607U, 0xf020c81911e701f4U, 0x571f313a1efb4639U,
  0x2d37fd36aa28d82fU, 0x463426b519d40eacU, 0x17b6ccdaf50cd138U, 0x1229bbd8a2b84525U,
  0x817fa466fa0bbca2U, 0x7f7f7c7f7fa47f7fU, 0x7f65b67f81d3e77fU, 0x7f4f7f816a190581U,
  0x1c818181175d817fU, 0x667f8181819a7f7fU, 0xad76ce4bb9408181U, 0x655d546765814160U,
  0x633581658f5d6c5eU, 0x627f3f8b7df112b3U, 0x5e93b79bfb5f887fU, 0x555fb0a6b786654dU,
  0xd4f6fe0fbc4d98a2U, 0xf7f3090906f4e400U, 0xf5e8d112bb0044d4U, 0x2224fcf506e4e80aU,
  0x20eefa16d011d224U, 0xf409effe10ddfee0U, 0x1cc712ef1219f8b8U, 0xecd3e7ecd617f0e0U,
  0xe0e517d3fae7f5e4U, 0xeafee933d508fc1bU, 0xc4200b28f4f8ecebU, 0xddf3ec112afdf8e3U,
  0x313291928ee0f0aU, 0x4c4c4d2d23f53a2aU, 0x1849101eb560054bU, 0x2b1f30e40200dfabU,
  0x39cfefe3fb28d819U, 0x3315ddc9d0bd241aU, 0xd156387fd519d5aaU, 0x6f7e7f3765d36931U,
  0x367faa368581137dU, 0x5d3470a769328e8dU, 0x439abbcb407cc24bU, 0x7f60b7948d81536cU,
  0xd5573b5c8150a38aU, 0x3c4e511a65be2b28U, 0x2a48a75982437f56U, 0x3b1c4ec67f26d4b6U,
  0x35b4c1d73e7fbf3cU, 0x484acbccad984343U, 0xea092a08aa7fa4a2U, 0xecf3052210e0dffeU,
  0xfaf00a2eacfe51deU, 0xdfffefcf8f1f116U, 0x18fbe5ffe213dafeU, 0xf30fcaf5facfe7f1U,
  0x3e603ed0226f9d5U, 0xe6da0119df0fd3efU, 0xefed2de602dd10d3U, 0xfff4e91dd403e50bU,
  0xed0afa17c3fdfde7U, 0xe7f0fd1218e6f0eaU, 0xbf9130020e2fcf2U, 0x18f911e7ec10f7e2U,
  0xddff37e4f3e5f5d7U, 0xf9ff03fd01a0d919U, 0x3e08f920472120dbU, 0xfaebdbdb0228ee00U,
  0xf8e36f25ecfafc24U, 0x12101ae6f212fed8U, 0xd711eec89e3b05d6U, 0x11f004f811ec94edU,
  0x7ff5fb347f4b30f0U, 0x19e6e2b4dbefe916U, 0xeaf57f1adf1ce1b4U, 0x11b0aed1503fdefU,
  0xed21e10296e520f4U, 0x80d04011726a0e8U, 0x1e05fb15683119deU, 0x8f7e4d0efb6f110U,
  0xff1511f4e932e8b2U, 0xeef403e6f113eeebU, 0xfbfa11f619a70e0fU, 0xefe70212fcc1f6faU,
  0xf913ff1be608e5dbU, 0xece3e7fd0c0ff1f5U, 0xfe05d5f4062a02feU, 0xfce9fbeee719f2eeU,
  0xf9ecfce4330bfee6U, 0xf8e6f3faf3fbe604U, 0x909060ad3f40700U, 0xfbf008050520fdf7U,
  0x1ee4e2d80907060eU, 0xc9ddf4fcf020eadeU, 0xefd51bdf388eeeaaU, 0xedfcfa1df5a0d811U,
  0xfb06fb1a1e160bddU, 0xe1e3f5f3034203fbU, 0xdcc3de306e8031aU, 0xc6d2c7f7d627dce9U,
  0xe1e414c8fec10392U, 0xf1edf325f681811aU, 0x41140d30570736c4U, 0xdde6cee81537cdf6U,
  0x8cc48e4160603efU, 0xecf9dbeae31afae5U, 0xe3fc13e6f0f7e6d0U, 0xfe01dc17fde2e40cU,
  0x2c0d0c253cf522c5U, 0xede6ea0c10fedbfdU, 0x801ecf512f614efU, 0xf5f6f7e3f02bf8f1U,
  0x4f20af00be6dc09U, 0xe702ef04e5f5f4faU, 0xd4fcfa07de1705e4U, 0xf7e30c29152613dfU,
  0xbfcd9f60ef20220U, 0x10f6fc08f1170afcU, 0x7f0ffe041e9f904U, 0xec04010ef50bd9f4U,
  0x7100bf4e205fd0cU, 0xfbf60d05091f0f17U, 0xfffff2e909ebea21U, 0x15300000014U,
  0x1ba000024a0U, 0x127b00000436U, 0xffffebadffffed15U, 0xfffff95affffe822U,
  0xfffffea4fffff97fU, 0xfffffe7dffffeeedU, 0xfffffd39000054d6U, 0x4cb00001dfbU,
  0x35f1fffffa35U, 0x170100003880U, 0x2ce1ffffe83aU, 0xffffd7b8fffff11fU,
  0x19bfffffcb2U, 0xfffff7e700001548U, 0x1ddd00000091U, 0x424b00002790U,
  0xffffe8e0ffffe856U, 0x4471ffffea0cU, 0x2b680000234eU, 0xfffff38e000046c0U,
  0x4cb6fffff290U, 0xffffd517000038e9U, 0xf1063d0f000021abU, 0xc79072a13cc9727U,
  0x9e5f12ef7f22f135U, 0x251cfcff0a4ae0f9U, 0x43bce16f30b6baf3U, 0xdacebdc02c282e5bU,
  0x36b51428f31b3659U, 0xe2d2597bbfcf9c60U, 0x4a2ddd1bcee372eeU, 0xd1b6ff0e142526fcU,
  0x420226459ee74717U, 0x8a20db269ef2681U, 0xd3aced456cb4644aU, 0xb81ba00120f2d2eU,
  0x3de22d5b9e22714U, 0xc9350ea52fd2e5U, 0xeb2c0c0518eaf2b3U, 0x2925eb3c300f06d9U,
  0xd5bec0b9f72cfffdU, 0x58e2f84a93fff324U, 0x227fc70f671cb916U, 0x1afc0f03985c7681U,
  0x11a9fb69bb6a31cfU, 0x4b9f2738df5ce6f2U, 0xceaabef8f9031d3eU, 0xff43332606fb1840U,
  0x5db01f0498c23b2fU, 0x48d5dd4ee820ffe6U, 0xc19310aa98156afU, 0x9f0b0f9ff9b7afb5U,
  0x1619f82e1dde0ef9U, 0xfaf51c10f7ea81f4U, 0xbd6e5cf01fed0dcU, 0xfe230f1109fce627U,
  0xe1e6ec2f09bb19d3U, 0x14e8140d101edfd8U, 0xf4aacb85f6c0f327U, 0x2467ad56c93201e9U,
  0x9921c2e9ceeca2b8U, 0xefc6d2f552b86695U, 0x7cd18c0cab00e3daU, 0xd14ab80384812105U,
  0x3025cbcab5f552fcU, 0x9d56e52f65fc4ec0U, 0xcea6d33af9e1092bU, 0x49da5bfaede25a20U,
  0x6feb9800f8d51601U, 0xe9573e234126599aU, 0xec2421237fe3170dU, 0xbf893fe781d0a647U,
  0xf2f83ecb370df9f5U, 0xe446817ee244e813U, 0xa0043315f1d81cbcU, 0x2ad20707234bcf21U,
  0x18a7dc81341e57e4U, 0xb8f192c9befe59f9U, 0x1744f71408e04d3aU, 0x4eddc11c3183abdU,
  0x15711c33d0bbe9d0U, 0x33fa5050f508d514U, 0x314801e4e6d40cU, 0x4ff3f516662adfe2U,
  0x4eee99d72f280510U, 0x2be00414ff120d77U, 0x601fc8ca7d7fdb3bU, 0x3966184f95f83c74U,
  0x4e662bb8d764c6c7U, 0x10b12801d800d1f0U, 0xad2316805d7201eU, 0x9c31dc4c17c1f520U,
  0xf72dd15a21035254U, 0xd4c1ed81996563cfU, 0xe239b137U, 0x0U,
  0x0U, 0x0U, 0x0U, 0x0U,
  0x7ffe044700000000U, 0x38e268b960299e30U, 0xbfdfd64ae21f7ff0U, 0x66670dac3e3503bU,
  0x9f117f453a3a3936U, 0xc6ad6c08d239d4f5U, 0x2412c76b4f05fd7fU, 0xf47c7f3139200232U,
  0x182d45111618753aU, 0xe34283500caf77fU, 0x3da98a7fc5fe230dU, 0x2d9cdfae42f7f61U,
  0x3037fa78bdf0525U, 0xd8aa277e3fb3417U, 0xa4accc3231d1525bU, 0x507f47cc81ae7fceU,
  0x34390678f62b4d20U, 0x2e7f703896ff2d5dU, 0xc5f125d23e3bd72fU, 0xa3c7ee584e1f047fU,
  0xc97f3fe94627c159U, 0xae81f0a1052af6e9U, 0x97b01fb4dd1ec725U, 0xddcae109e57fbe22U,
  0xb648f4d441cae8faU, 0xbe6081a9d732501eU, 0x1376e5233f0cec60U, 0x9ff85ee674d8a381U,
  0xed06b701370d7f28U, 0xee7ff8022cecfa6dU, 0x2281623803f2f307U, 0x3ed24c02b21fea17U,
  0x132638b0813ad1d0U, 0xd2f618993bf6a454U, 0x81ad51afe74bb50eU, 0x8cb7ff2eed21616U,
  0xb4f6d8fd06fbbf38U, 0x2ef7e1816f4bc758U, 0x13ed09387f252e0eU, 0xeb7fff1c2fdd7f5eU,
  0xbe2a1c9413ba2625U, 0x2c6a5981e2fd6566U, 0x25d3231233e80608U, 0x8bb92240bace7f49U,
  0x1134781c8a9fb10U, 0xdbf015272619ba59U, 0xfafda0d0775cd7fU, 0xd2f8eff444bf7f30U,
  0xba7f3e10fbb55959U, 0x8cdd07e80ae63863U, 0x93b07b3db454a25U, 0xe8d63d59f07f3541U,
  0x3bfc9714902f7fbfU, 0x81174539f672dbf9U, 0xd61024030fb54628U, 0x6db39250c7f6443U,
  0xa1e123ef05f753aaU, 0x30394e2902fa867fU, 0x33fbffc8f0d88133U, 0x394a26fa7fdb314cU,
  0xdbda61673e3fd040U, 0xd0b8df4ecf7f664bU, 0x666c7f6eb68bf6c9U, 0x2f66f7810c08b602U,
  0x7f9584b2bfcb632U, 0x293be87f10e162f0U, 0x9302ef7f0b21ced9U, 0xea51c7104e640ffbU,
  0xedb17d405233837U, 0x91fe4703207f183bU, 0xfc1c0947117f3e4cU, 0x111df9cbc8f8b9efU,
  0x8985f97fffd3U, 0x6c3f000073f0U, 0x6d6f00005276U, 0x8a8600005dcaU,
  0x661e00006b65U, 0x6f51000094cdU, 0x68ba00008dd3U, 0x82c5000053bcU,
  0x7a0200007b67U, 0x6ab400007e7dU, 0x525500004092U, 0x5e6500005c8aU,
  0x566b000053e6U, 0x7bad0000eb67U, 0x6b3800007365U, 0x6bbe00005bb7U,
  0x746b00005dd5U, 0x687a00008c83U, 0x5e9700006fadU, 0x546f0000703bU,
  0x102940000b3b7U, 0xb8c50000c8e0U, 0x79dc00005b43U, 0x69b700007770U,
  0xfeeea37c00005d53U, 0xb14d44a7f6038554U, 0xde811c0d281b4108U, 0xfc1333653afcf40eU,
  0xd13cc71be09214d3U, 0xe613d50c613ee9e3U, 0x8920daff15289aa6U, 0xfa3d4bd281c2260cU,
  0xb537464766ea23cfU, 0xa01ff4124ff01591U, 0xd4603572cdf503a3U, 0x92d596ad21850eaU,
  0xd1f4fd1f3a810df0U, 0xac4f2ea2f002a36U, 0x1ff35934ed0d2501U, 0x38dc2c24ede431f2U,
  0xd93a7fe0ff0a00d3U, 0x41a3583308f9e5e2U, 0x27aee1001e0e00fbU, 0xe94adf2f153d2a02U,
  0x3581d78c0db2c945U, 0x5087fda935d5c313U, 0x266ccce7bd53f123U, 0x9bf13200f0931403U,
  0xf2ddffdfc53ef0caU, 0x29d8fa3d3ef20fd9U, 0x4066fcedcefcf761U, 0x121591ecdbd21dc3U,
  0xd4a1fbee401fe0cU, 0x45d2efcd81ef057dU, 0x44c3e8f3881fb52eU, 0xe5d7adfbdbe8f1f2U,
  0x24082fe0043419b7U, 0xf30ab02035f57fbfU, 0x15d740050fb40720U, 0x100f2df90cf182fdU,
  0xd17fa6ebd7be2ae3U, 0x64b244cbf1b84312U, 0xd9291412d50eabe8U, 0xf53fa4cea22cbd2U,
  0xef05e0d6f0fd11c8U, 0xf7bec2a6d6c362c2U, 0x37f5c88b4be5ca55U, 0xed23268ccc93d767U,
  0xff5001ad0d8e2e1U, 0x63ecbd03de1236e7U, 0xd1442442861006f7U, 0x12c2f405d63ebbffU,
  0x154b21ea7fcd48feU, 0xa7fa9ed0aef2d28U, 0xc35c3aed23cff4b7U, 0x59e8c0f024adf3feU,
  0x4f09282b2de7654aU, 0xa702e1075711b9f5U, 0xd67f2a3c3c366eddU, 0x2e08ebb2d2eb02e6U,
  0x9402ef1f3831eceaU, 0xb5210ccd1652b918U, 0xed11f95c6814db1cU, 0x1ff127290b5e02f6U,
  0x192c6819f628dcc0U, 0x1ff4021d15d70201U, 0xb800dcf7b7315455U, 0x4aefd6c6073112c3U,
  0x37b1bd21e65db07fU, 0xf33ef7aadacdfbe5U, 0x17aebeaaf0f2bef4U, 0x195332407ff0fe00U,
  0xef3dbec471f5a9a2U, 0xf34323f5cec93d37U, 0x5956d7cf060a2fd0U, 0x203ca7f34cf7fedaU,
  0xb536d8cbde134770U, 0x400776dfcf33c525U, 0x8d8fe2af4dfb731U, 0xd3092fa736cc13a1U,
  0xeaf636f71c7fb815U, 0xd58af1133aefc491U, 0x1a16f026ecfd9228U, 0x26f1bb13f52d1dc0U,
  0x820f0072220c02bU, 0x2500e81d37e21fdeU, 0x315f5ffa9ffd6d2U, 0x48f514e9d741c77fU,
  0x562d6ec6f105d1d9U, 0xc025befe16cbd77bU, 0x376f3855df40e60fU, 0xad50810f5d01cdd9U,
  0x20442912d55440dbU, 0xc61018f79d0bc917U, 0xef8f163af522cbbdU, 0xb5063701c76c00U,
  0xf5520fea6504c623U, 0x5c05254b26c2ab89U, 0x17e939d51b8142d8U, 0x21ffda170e4e264bU,
  0x21e810811db9e3baU, 0x48c3e30c31cdb706U, 0xd2dde3ec0f05081eU, 0x3ac6e9e90516ba06U,
  0x1517a5096c030cf7U, 0x37e3d5dbcafaf647U, 0x4f3ced1f408f7cfU, 0xf0f60401180f7ffcU,
  0xd769e80c35d82b26U, 0xe702e727fa09220bU, 0xee9f4fa0359d6fcU, 0x38eb3359d41e0503U,
  0xaf64c426e0393e0bU, 0x32306ff1ddf43bf5U, 0x6cb3541392155fc2U, 0xdd1bbcf9efeb1110U,
  0x497f08ac9d64783cU, 0xf5ced92b33c9de3bU, 0xdd334fd0f7ec395eU, 0xbd31bf6ede3b1fbU,
  0x7fb85fed1cd9d513U, 0x3347e1ec31e7e45fU, 0xffe137990b4c1cd8U, 0x48ff0f4a5b38ffc4U,
  0xc4ea131cf4f34af6U, 0x29efd30222253d96U, 0x3ab60be41be9efebU, 0x37ee2dbe3224a701U,
  0x193922eb102c067fU, 0x3628365709523131U, 0xcef67f35d327f01dU, 0xcf1c17e40cdee849U,
  0x34eafe0dd2f3080fU, 0x2507f0272123e11bU, 0x8f8cffb412448c6U, 0x35380606efd4e207U,
  0x1dc3b00911db2503U, 0xd7b239f1e0d1b774U, 0xf12e0c01e121c6caU, 0xdd01e7f9f170016U,
  0x20b1b0e2b34bc60bU, 0xd01cfd6fe35f613U, 0x5daa19aa25e7fd66U, 0xc935f7c33b285c08U,
  0x31c53431c7f317e6U, 0xd0dd3ae3368201acU, 0xcb241581321f1bf7U, 0xb99d2cfe030805b4U,
  0x66d501fb4ebU, 0xffffe6ecfffff0dcU, 0x9be00001360U, 0x8e3000011f6U,
  0xffffd0d2fffffcb7U, 0xb27fffff644U, 0x14ecffffe721U, 0xffffea660000013fU,
  0x169bfffff530U, 0xffffe108ffffe5c9U, 0xffffeca3ffffedcdU, 0xadfffffea60U,
  0xd5e97fd300000974U, 0x3109063c2013021cU, 0xf40a05cbde3be621U, 0x59163661ed99aff1U,
  0xf8f191ef26fb2eb7U, 0xa7e91e272cd2adfcU, 0x5cdb81d07f0acae3U, 0xe403a82da0a3e666U,
  0xc158e617e0efdbfdU, 0xb9365f4a15dd0430U, 0x1eca5726344a6af2U, 0xeb90e229fa69c708U,
  0x2cd408da03293b81U, 0xf2ddec0781e8311aU, 0x47d932f93b29f8f8U, 0xfdcc17db19cb4c31U,
  0x24fe4d7f26e7db17U, 0xaf638bbecd21509U, 0x64f3c22ef3c3a120U, 0xdc27118208e52422U,
  0x81c2c742f230e0ecU, 0xc2263ee423328cefU, 0x846986b958390b7fU, 0xc45529bb0f54c303U,
  0x47c8c6f803487eafU, 0x815afde5f7eec843U, 0xe5a132240b1e50e2U, 0xfaf9edee15a2adf6U,
  0xa4407f200655c9adU, 0xe39b203716a29d0bU, 0xc638fec3f32efcf3U, 0x5ebb8be59c810658U,
  0x73ff44d9fdc1efa8U, 0xea0d2683bf525358U, 0x835e1fcca03e332U, 0xb8811c3c1afa53ccU,
  0x870a220238e9de0bU, 0x8f7f3ccbd95a12faU, 0x1f2ccdf6023bec09U, 0x180017dfef452dd7U,
  0xce25bc98127fcc41U, 0xc230ea0fea25f1efU, 0xbe32099e70071c1cU, 0x12f7fdf012054157U,
  0xb7e74f4e7f4b62efU, 0xe1ef18c9030d31e3U, 0xae6f6229fe3afceaU, 0xe61ded238101225bU,
  0x6bd3c55af6f4d01bU, 0x3b8ed5c22bbefb5U, 0xe516cda0b57ffe3aU, 0xceedb2e95607420aU,
  0x33e6f4ab9c9b1e25U, 0x1bfff17f060016b1U, 0xef00205de5d21b44U, 0xe8870d32c92d7d9U,
  0x4afe7f95c1bb1705U, 0xa473f0344bb71f28U, 0xacfef1e4e905d613U, 0x5f24ad0757123a08U,
  0x1c7ff2fec8dc7f0cU, 0x398ededafae8fb3fU, 0x4b4a28e4db0ce2b8U, 0x8117d2dd4400ee3bU,
  0xb6f84e01ca3e06d1U, 0x50653acfc9f0db37U, 0xdc2df8b3ff151f48U, 0xd9f1ca824314287fU,
  0xdfdf216226d2151fU, 0x7fe3f702d400ec06U, 0xce18eaeec8cbc80eU, 0x30d70221fb4af148U,
  0x3e27bef51f1f5505U, 0x42d8811c232f5d09U, 0xc707ed590a37c5edU, 0x42f9c23c4f2196a8U,
  0x7ff50f08f1e916f2U, 0xb19acf10f2b4addaU, 0xb54b22c82ac9db11U, 0xf0dc270ac2cce903U,
  0xd381102109decff8U, 0x56962904ecd513f9U, 0x427fe3fdf6e0b423U, 0xdb59352714fe3be7U,
  0xa7526704c1e74de0U, 0xfb3441b7ff510bcU, 0x49b64ce65cf76b21U, 0x58f20d2a99f82c57U,
  0x21100e120ad808c6U, 0xceff19c6cceafa0dU, 0xd3000bd83bc381f9U, 0xeaec0055d202f9fdU,
  0x1222d50b3b5481f3U, 0xeb24f4e17ec03d0cU, 0x216e022dfba6007fU, 0x14e71ce2d53978daU,
  0xfd81e12df4b70f40U, 0x79f3e347380eed1dU, 0xad0e2dfdf005ced6U, 0x1e3ff491fa2af909U,
  0xfdb59b0f289d7f2cU, 0x3c25f8175f4b22b6U, 0xe707d04609d5230bU, 0x38c6ed98ddec2935U,
  0xc7bde3e737222d81U, 0x522281e73209f207U, 0x41e7d9f8cbc637efU, 0xe816e443011508b3U,
  0xf2396b018f63b18U, 0xe32914eef509f316U, 0xcfe6555aca816b11U, 0xf6ceb118bd06b731U,
  0x6a3ec91c9150dd5U, 0x1933810ee08ed2e1U, 0xf7d4f87f256025f6U, 0xba24eecb140ff021U,
  0xfc03f2f9fef51423U, 0x7fe1c410ccca24aeU, 0x31d1a12008d4120dU, 0xe332f4ade3e43ae6U,
  0x7f30062035d9be11U, 0xbd05ebcc1afa27eeU, 0x3c24ed1709ecfc4dU, 0x3507e3811407d5f7U,
  0x294dec343d55d4f0U, 0x45603d33f4eeb367U, 0xf2da515deb41f51U, 0xba4c4c7f4e5ed8f4U,
  0x1e93b03e14a00cfcU, 0xad7f81dbdd2120dU, 0x915eebdee6d74407U, 0xf84f024a9f35d9eaU,
  0xf83a4d9244dfe881U, 0xb8b227fb5dda2f48U, 0xf8f64a847c540b47U, 0x2efe44e91f7f92baU,
  0xd43b1deafcf9f605U, 0xc9f810bf16233967U, 0xb5410b373c1681e1U, 0xad81190018d339c2U,
  0x1a04b8f5d80cebf6U, 0x6b5e146a92754a4dU, 0xb14396ed6fee1801U, 0xc30693211d218127U,
  0xbcb63dcbe17e40faU, 0xec031931db56a67fU, 0xa1e56ce771097eb7U, 0xc1240dcc1ca8ddadU,
  0x57cb81ba17007e5fU, 0x142e2815eb14ef13U, 0xf4d29e24c23612d0U, 0x81341fd769aedbe5U,
  0xb8c4c2291da8b709U, 0x6d0e81cce3c4b3b5U, 0x3feffa49d6f5b527U, 0x1e1af737cc27b300U,
  0x353c6b67ebf1e4fbU, 0x81872777f6f4d8f8U, 0xec33c9bd2260b504U, 0xffdbebf279b7462fU,
  0xeb1b53f0b2fee5eaU, 0xfddcff55d1db8116U, 0xfb01083434e5d532U, 0xe0097fd9fb4110d8U,
  0x17e500eec9ba091aU, 0x4c9c81bfc7ddca2bU, 0x926df3e2c2fb24a7U, 0xdd379f3bd0d4acccU,
  0xa4a2fe47e3122bfeU, 0xb63b56bf17141358U, 0x81bd092612e809ddU, 0xf49b4cc7d1a602edU,
  0xb1203031bbe10c7U, 0xa9a6e0d80fff1093U, 0x152481c2813647e0U, 0x33dcafdc8ee7da15U,
  0xda4be11f01dcd430U, 0xde3542a2db3c317U, 0x11e823304c28f8c9U, 0x4b18cdfb04f1eb7fU,
  0x4c8cbf310a11e1ddU, 0x3160c7ddc1f08eecU, 0xc27cf1ea8a381ebU, 0x4475ac4f3ed5a80eU,
  0xfd83c8a7b9e8d6b2U, 0xfd01bc209fbe810bU, 0xdc60007f171b1cddU, 0x8a13325834e425a4U,
  0xf1fc24fe1028ba47U, 0x917fed150f45def5U, 0xa8d448be04ec50c5U, 0x5548f00c28ca5babU,
  0xd10781d4c2410471U, 0x1be2d9210bf3dd7cU, 0xc9e53c61040c27daU, 0x81b2ff8d44cdf21cU,
  0x1c67ffc2fc46c4c9U, 0xf219e4c8ced8af02U, 0x31f7d6d4b352c6b8U, 0x27ed81524f033026U,
  0xa6f40bfce54b07f6U, 0xa82de0053ed8f195U, 0xc241eae400da5e70U, 0xd1c5e0042b2035f0U,
  0xcd8166098126dc18U, 0x185868bf21e4e7abU, 0x3bbf5d223bd5efaU, 0x4ee61fb9c1dbbd42U,
  0x7df6b57ffcaa43cbU, 0x170d572e064ebfdbU, 0xd2dde6a3deb72891U, 0x6bc7c1523c236633U,
  0x811c4ef5e133fdb6U, 0x5127c92c34f8dd98U, 0xff1dd1ec05c6e69cU, 0x35168156e30bd0bdU,
  0xd301213ad90f61c1U, 0xd146c2db84a9540eU, 0xa1df467f9cbad10cU, 0xefe7eddf09a2d619U,
  0xf6f507e726f6100fU, 0xc3ef1bfaf6cf09f6U, 0xf6000237e70481e3U, 0xe08d9080cdc4c31U,
  0xc3ed7fff45c618bfU, 0x4d940621fddcfdf0U, 0x7efdb7a179e4610U, 0xd11f1923fec94fcfU,
  0xf3201b35e981f25aU, 0xa4020e81fa17ecf2U, 0xffe7f98f39b63bf0U, 0x1dd12d37ce17d3c2U,
  0xe01f2cff01e71da6U, 0x1bdbed3ccaaa2310U, 0xbd316fdfc0d48110U, 0x44426700efa6615U,
  0xfa277fe30c7335caU, 0xf85f04b0d2281395U, 0x920f87f2df51308U, 0x6d3f2e64225e2539U,
  0xcfcbe8d92dd024eeU, 0x1cef10083306ed31U, 0x19db0703ed7f28ebU, 0xf32d18bc090302caU,
  0xfbeaf72cf1eeb434U, 0x9e057ff31c07140cU, 0xde271a0152be22edU, 0x1a04c5df29bed722U,
  0xfe616de72763d25bU, 0xb938287f7f175b36U, 0xdb995d2142113fb3U, 0x4322df0cd4bbc83cU,
  0x61b1c5ef2bfbe614U, 0xf72a957129867f10U, 0x14f5ba092c15befbU, 0x387fce9e11a532a5U,
  0x36a7ffc5f7977b63U, 0x5803442c0548f0acU, 0x9e00ee2b3e04481cU, 0x42b413e6b329cc02U,
  0x7bf7de39cf1793a6U, 0xe7072715917f440dU, 0xb5f30c6e7b4513e0U, 0x41f7be1e1f00bc0dU,
  0x3829fb36813c12f9U, 0xf73fd92d1a00db0fU, 0x4133d7fb2edc4603U, 0xf2c764fa2a811a4cU,
  0xdfa4bbf126465c31U, 0xd616f883e5f06923U, 0xeba98118314e0d81U, 0x1f36e150ab9b1eebU,
  0x4fbbbe28c7b7a107U, 0xbe813d0c39dc1ddcU, 0xed1559053214e8f9U, 0x1a6425fbfa29d56fU,
  0x44c00bcaeb11bafbU, 0xfb2c970ed8ca433aU, 0x13dc1b686257f681U, 0x24dec8081200efd2U,
  0x3ac5f7ecaba27f68U, 0x4d6706eb29071644U, 0x3b391340cc9b2714U, 0x1b1b4b7f0a8904beU,
  0x26e9300d9a1ad6feU, 0x19c6f3813dcdd02aU, 0xd51a0b29f9c93efbU, 0x23d523f9d67242d4U,
  0x2e19d0de1718c7faU, 0xcf0315fef117fc1bU, 0x7f32f428bfd9c624U, 0x234de2371013f623U,
  0xcae3f3dc13e629f8U, 0x1603f9f3dd690709U, 0x5c023b07f27402eU, 0x8952edf428790811U,
  0xd2540c7281526230U, 0xa6b9e9fcf8e41726U, 0x2ed1d0e6e0e16709U, 0xa79fe44a22071981U,
  0xee1b5b2b0150caeU, 0x35d588fecded1a5aU, 0xf37f26231beb1cedU, 0xe5b2392437af0142U,
  0x1bdf161655ef370aU, 0xdc95dcefed5f11c8U, 0xf9ed8b0429dedb81U, 0x7fdbe76f53c23e31U,
  0xc8432a64e711ee27U, 0xa1c636ce11f6da91U, 0x32f60e0afdf15ee8U, 0xce81663a235644d5U,
  0xcfdceef496f0dec7U, 0x32ce21df1df515f2U, 0xbeb5dd052397ef22U, 0x9a214f38093e81b2U,
  0x2ae6e2c7fc2e2114U, 0x3f1b074ac9188a15U, 0xfab431eb81352498U, 0x13ff6181dbf0feb9U,
  0x4ff27cccdaa106f2U, 0xdfb781d10b38d33bU, 0x24f0e0e3fbbb1452U, 0x301a35e9da0f19afU,
  0x2d192635dce64b27U, 0xea3d61ccdecab03fU, 0x48ee3e9f3cd1f6d4U, 0xac08e418d4b6e67fU,
  0xe3215103cef850cfU, 0x2eacb21f355d4cd7U, 0x865b4ac2de816423U, 0xc85ac1cffccb25U,
  0xec467581bd431a2cU, 0xd6dd3bce0126e60bU, 0xcf17f2dee31d5d1U, 0x64d4f12f31191639U,
  0x837dd27e8b3da40U, 0x6590c6ec5593621eU, 0x22ac7f0f54116bb2U, 0xad0af630cdf6b5f6U,
  0xe722e62b6cd1dbc8U, 0x540fd3fb341156e7U, 0x122be75097e27f32U, 0x814a43c9e0aae50eU,
  0x99f41793fad4e6fdU, 0x437a3d8ab8e24c32U, 0x8af9dde742a07f64U, 0xff1d005df85a4be7U,
  0xa79dbea738d17ff5U, 0x6269202336589345U, 0x53643e3de796012dU, 0x243cf6103a3e7fU,
  0xcef03327f0023f0U, 0xe70314221417d716U, 0xee1f3c58fb1405dbU, 0xa8cd77772dcb5adbU,
  0x33c12b30fb38f438U, 0x29d7597f498121cdU, 0xdb0f5c0d2d1bdae6U, 0xe33a29ece724fd50U,
  0x5bd81c27cbU, 0x5a400000774U, 0xffffff4200000797U, 0x1cbfffff9d6U,
  0x8fe0000028bU, 0xffffff30ffffff17U, 0xfffffcd80000007bU, 0xfffff8f4fffffcffU,
  0xfffffc4fffffff56U, 0x7110000002bU, 0xfffff8a900000019U, 0xfffffaeefffffe76U,
  0xfffffe74000004e0U, 0xfffff87f000006c2U, 0xc0000035eU, 0x2a1fffff42fU,
  0x439fffffdc6U, 0xa31fffff927U, 0x3570000027fU, 0x3c00000228U,
  0x42a000000cdU, 0xfffff87dfffffcc0U, 0xfffff84600000093U, 0xffffffd3fffffe19U,
  0xfffff7bffffff92eU, 0xfffffcf4000004a1U, 0xfffffddffffffb8fU, 0x1485fffffbe7U,
  0xfffff9a800000427U, 0x25bffffffcbU, 0xfffffe9c000003dfU, 0xffffedfd000006eaU,
  0xfffff6a800000be6U, 0x906fffffecbU, 0xfffffe0e00000330U, 0x6d5fffffef6U,
  0x1cbfffffa98U, 0x48cfffffdd8U, 0xacfffffdcdU, 0xfffffbb50000055dU,
  0x1eeffffffc4U, 0xfffff32f00000750U, 0xfffff9f300000b5bU, 0xfffffdc1ffffff74U,
  0xffffff90fffffebdU, 0xfffff993000003baU, 0x31afffffd71U, 0xfffffbbd00000026U,
  0xffffff00ffffffafU, 0x3720000012cU, 0xfffffc6400000b31U, 0x14000005b8U,
  0x3380000018cU, 0x12efffffc8eU, 0xfffffdac000003b4U, 0xfffffecffffffe89U,
  0x732ffffff7bU, 0xfffff14ffffff1a8U, 0xfffffa96fffff4a1U, 0xfffff655fffffd80U,
  0x7c4f5df00000002U, 0x7b9d1fa0cfce602U, 0xfbddfeb5fdfdf9feU, 0x17f1ebfbdfe5f209U,
  0xc5ecf5eb110fca33U, 0x608f75ff0d2f80bU, 0xcefeefd020a152aU, 0xffe0e9e9010d1921U,
  0xe1f8d7fc1cf402fdU, 0xf227d8f900f0f9f4U, 0xffff8aedef110f8U, 0xddf11bfcf1e5da7fU,
  0xeffc0cd9f3f3fa0dU, 0xe8ef07fff0f807f8U, 0xf416f2fed40148f8U, 0xfed8dcbf1d24dcccU,
  0xefc4fa1ac802e2fdU, 0x226dde5f1ef08ebU, 0xfea7e1ccf5e4bdf3U, 0xbef004d03fe4e7f2U,
  0xce00c05ff5f703fbU, 0xfa13eee42f08ee3aU, 0xe1c9f0bdab231d81U, 0x86f2d9f4f90cf3f5U,
  0xfd4df21202ea00f5U, 0x4d34f5aaf3ea12e0U, 0xddfd00cab8ebdc2aU, 0xecf00aa4f2f5d2fbU,
  0x4be119f2d71501eeU, 0xfdec0701d2030f1eU, 0xdff5ceaa025290e9U, 0xfd8a2b06cb02f1dcU,
  0xe534d90bf4daf5eaU, 0xc288c8e1dfcdd4e0U, 0xeabeecd15debe213U, 0xe5f1a067cc00f8f1U,
  0xee26e80a0017db25U, 0xd5d7f696b5bf3dcdU, 0x9eeaf3e0f61fe505U, 0x476e3e4fcdafaf2U,
  0x7f13ea81e7da15dbU, 0x7f8dfa4d6e8f30cU, 0xe89501dee8e8e54aU, 0x62eefdf1cb1b32dcU,
  0xe9f5f6f711d1d236U, 0xebd3eae8244aa803U, 0xe0d0ed09fbeaf0f9U, 0xe5f8ee17f9f1fd08U,
  0x39fdcbe19ec02efU, 0xd8eafbf040f9ed26U, 0x15efe83be8dcfaeeU, 0xeb15e7f61bf0f52bU,
  0xe2c8128fca1f1defU, 0xf2fbe30ffe0beff1U, 0x125de5f106f505e4U, 0x4917fbd314e419e7U,
  0xe9ebfb03cae9054cU, 0xddf80aa3e7f72707U, 0x5cedf406d60335f1U, 0xf303053104d50430U,
  0xe2b8d2ffef5dbee2U, 0xf9b3e5eb0a01f703U, 0x524f6ed02fc16fcU, 0xf8bbfb9ec9fcf300U,
  0xc5f509f70dffee36U, 0xec1e0679fbfaf708U, 0xfcf8eaef31f92f1fU, 0xded6ebc2e7fe37f9U,
  0xdcf5eb2425e2f6ffU, 0xfc0704fbf91c0404U, 0x2224fbe0faf604f5U, 0xdce4151613f2e94aU,
  0xfc01fab8e9f31304U, 0x10f4150ce0f016ffU, 0xfa28eb54e6fc1a1aU, 0xf2d8e7e3f9f7a5f3U,
  0x3c6eff70e0ae61cU, 0xdcdfd69cf60df4f6U, 0xd0befebc3ebc008U, 0xd0dc01f834db0ffeU,
  0x40bec3bd5f2f7e2U, 0x807eb01ff09fb3aU, 0xd6cff20108f4f728U, 0xdbf9e7de0b19e70aU,
  0xd52002db050dfdf6U, 0x26f802bf08f40defU, 0xd84413d2dbeef319U, 0xfa0008f1fbf7e436U,
  0xfc000216e1e608ffU, 0xf64206e7f70410e5U, 0xf1fc02eef73ee8e8U, 0xebde0b0eb313e033U,
  0xfe6ac802d9c8f7eeU, 0x69800a9cbfa81faU, 0xcaec03d05326079aU, 0x350dabf3080516f0U,
  0xe22b0afefafbf158U, 0xd3012199b1a306b4U, 0x810203fee344fa10U, 0x62fb77ff9f617f2U,
  0x7907f43edb0bfce2U, 0xe7fe0aeec24f9f5U, 0xfafae0e02121cb32U, 0x25e104c7024115f8U,
  0xa182de324ddca3bU, 0x15c30fe7f77fce31U, 0xe10f7fe090130106U, 0x657ff251c381fad2U,
  0xa3813086811fae00U, 0x16e2f2ae7f7fc08fU, 0xfc52810346d80e0bU, 0xe67f1d21f11e1103U,
  0xf6255f8181c27fb2U, 0x911af7d5c066122dU, 0x4745babb12ec2812U, 0x763ee174aa1ec1e9U,
  0x380999811d50d7e7U, 0x2117a94a092fc97fU, 0x63e7568112586600U, 0x212e5fe47ff68869U,
  0x3c3f20ca071a90eU, 0xfee70bf5c4ebe7ebU, 0x10510e0ad3c5e8fcU, 0xf1d3058aedfd92fcU,
  0xd7daf2d47808fe81U, 0x61bdc150bd808e3U, 0xedf3f8fce404d768U, 0xd3192e9bb3bf0dcaU,
  0xb205f703ea24fd28U, 0x1645dd1805f1fdfaU, 0x730cedeef503f7f5U, 0xfa21bdcfc627f52bU,
  0xfcb7e0ccf618341fU, 0x7fe92fe5090c28fcU, 0x460f2021e0d050U, 0xf3c8efe3a544f8f5U,
  0xd4d7000f0df0e0U, 0xdb0e0bc4f4df08e8U, 0x11f4dbb6a1edeffbU, 0xbcd505f90de31800U,
  0x80b1268eb0601f3U, 0xf307f709dfe5f452U, 0xfbecfbed03f52531U, 0xe1fee0fd00f4f402U,
  0xf0edefeb0f1004ffU, 0x3de911ea0df410f2U, 0xd50701f804fff306U, 0xf6191ce1f4f82c19U,
  0x1def0312eef71603U, 0x70bec0aefe2e4f1U, 0xd2d1e3d4e938acf3U, 0x981000713e3be1bU,
  0xe0a8be900038f104U, 0x6d8d20408ddd7eeU, 0xd3cf0d06201810f9U, 0xdd01ec20def5effeU,
  0x24f5e0ebe20cee13U, 0xd4d7e6f821d7e7ddU, 0xceecfdf12913d4f9U, 0xd85a0f02f500f500U,
  0x137fe8ae11e708caU, 0x192426daaaf003fcU, 0xdcbd02e40afe8155U, 0xf2e51317d5b9e6f1U,
  0xfa53281f03f4e9ebU, 0xebee3c57f4ca04f7U, 0xefedf3ea8649207fU, 0x2cd8d1f2caf807e5U,
  0x43c3aba6121b213U, 0xc2290edee90dfed0U, 0x7f2f48d51cfe280dU, 0x245c1ed631d1064eU,
  0xf60830dd22eeddd7U, 0xc70d396dd7432e16U, 0x62d13370b29272bU, 0x23cef95d8138e31bU,
  0x3177d3d506101461U, 0x1f26c5e07f369e65U, 0x64d04d926330800U, 0x115c44e73a81ca4eU,
  0x7f817f5ec6b5d27fU, 0x81e3f481817f7f20U, 0x7fea7f1281927f81U, 0x814d7f817c7f017fU,
  0x147f7f81c6a3c6bfU, 0x487f31c07f317f7fU, 0x52ff7f7f7f810821U, 0x177f7f994e7f1964U,
  0x2d7f7f33817f7f7fU, 0x7f8d03f17f757f7fU, 0xe0d37f5ba37f817fU, 0x7fea8102777ffa55U,
  0x7f7f816a557f2441U, 0xf67f7fa7767f7f7fU, 0x7f7f7f815ea8817fU, 0xd96022281a2de60U,
  0xe50ae1edb2130ab7U, 0xfbd549c5c3e202f0U, 0xc9113c84571eda23U, 0xbd30fcd20f28eba5U,
  0xfe0a14d9225d0d16U, 0xcf21ce516b1c57fU, 0xd13d2add33d8ddb2U, 0xdd100d36c738123bU,
  0x500b35071518f51fU, 0xaedf8f0b514d724U, 0x2327aaf31833fc27U, 0x26ddba0c1f167c26U,
  0x12233214300c031eU, 0x136ffe320bb8e26bU, 0xd5a1eff68fd9f423U, 0x5a5e0f0faf1cfa8U,
  0xf9de0fa8fcf2f8f1U, 0xf12fd4e7f7f1c3f7U, 0xb8f70308f1f011e4U, 0xf3fbd53cf20e0afeU,
  0x82afa0ce0dbca46U, 0xebecfafe1bdeef17U, 0xd4f8f3071334ee0eU, 0xeb1bf7d3010101f6U,
  0x1ca404df18f703d6U, 0x1f80dd9f1fa01fdU, 0xf1e5f1c2f4f64130U, 0xfbf41106dcd6ef08U,
  0xfe240e3820def4f2U, 0xf3ede6d7e11510e0U, 0x10b4e50122ffe22bU, 0xf5c3d7dcf4220305U,
  0x8c3d9211aeb06f5U, 0xc9d80008f7fa0fc2U, 0xe20bb7e509fcfaf1U, 0x8e7ebef14ecc33cU,
  0xf3c7eb02fdf90bebU, 0xe5fd0df81e04e8f1U, 0xeb06cf0bef01fcefU, 0x2b4afae415f304f6U,
  0xff29f8d7c1f4ede8U, 0xe5faf9f4dcf98a2cU, 0xe3e31422e9e7f3f6U, 0xfb11f5fc2c2de4ebU,
  0xe9050f7f04de9cf8U, 0x1001e4f1c9e0f153U, 0xdad0f1baec4302eaU, 0x302913161e9fffU,
  0xe2000301141058a3U, 0x1c14228af8fdfef3U, 0x26e9f9e227f7c12fU, 0xbb0f0f02e1a1fdb9U,
  0xbefb367ae5330c01U, 0xf4e963effa301527U, 0x44bdff0eb91af4eeU, 0x1a3bf9feb20f432eU,
  0xfaf6e9ee4dfcc003U, 0x2707f21026e82effU, 0x2b23c744e1d720U, 0xacd087df896b857U,
  0xe206f7d8aff91fd6U, 0xd0bc3881d34e08d3U, 0xd4372c1d273ec520U, 0x15fe4acc03f97fb3U,
  0x133d5981ed4f2a1bU, 0x7fd71a2e46998121U, 0xba3724def8de01afU, 0xc103327fc451190aU,
  0x3e817f140a7f4249U, 0xe5d712f0c92fd00cU, 0x5f1aea08e41f7f3eU, 0x1b9dc0515b030a1fU,
  0x4218002a7f107821U, 0x4f538d445d0d13eU, 0x7c4f42bea92d324U, 0x5faf3f5e601f9cbU,
  0xe8ae23f5e03e07ffU, 0xd32c040e5824cd05U, 0xe40120e607f93ab6U, 0xe00419d2f57f07f3U,
  0xd1efffb219ed324U, 0xcc292126f1dde2b4U, 0x81f61461ec0e0010U, 0x329b1dec001ff311U,
  0x15f8fbfad518f2caU, 0x3713dde3d4092b1dU, 0xf2ead60521ed69ffU, 0x14f7f00d2ed7470dU,
  0x1a08121dddcd2fU, 0xf5bef0fbd2e20000U, 0xfad5f507fde3e4d1U, 0xc818e1fb230bfbU,
  0x9e4ea00dcffdcf8U, 0xeff0f8f200f5f7fbU, 0xf4fbed1ffa27fc05U, 0xc12fb11fcd30c3fU,
  0xf5e1f62b0417042cU, 0xb0010b1c0feff5f9U, 0x4b5ed10fe1ffdfeU, 0xedfa1707050609f5U,
  0x21f104e001f1fc2cU, 0xf70607badcfd4a34U, 0xf8f71112e7ea000aU, 0x402152808f8e706U,
  0xf3e0fad9facae6cbU, 0x5abeefe25e5e81dU, 0x1716f3df0ff10800U, 0xde9dc29f5ce2916U,
  0xa0f2fbfe01f20cfeU, 0x1004e70d11d9fafdU, 0x1fd6f8e716d4ddf5U, 0xf2cde215e21efa11U,
  0x13f7f2d636ddf7ecU, 0xe70018f9f209fc0dU, 0x1d1bffff05f70ff1U, 0xefe910eef6e6dcf2U,
  0x1e41881e301ac06U, 0xf0001c2fe407e8feU, 0xf2ded6ef11320ee5U, 0xef150d3e08bdc5e6U,
  0x6dbf70007e9ea38U, 0xe5231301fb4f02e4U, 0xee4bdf38e6db160dU, 0x9de91207d5f823ecU,
  0xaecfd93f2cf03f8U, 0x33eafedc15d49cf8U, 0xecd7ee23b9160dfeU, 0xeaf4f0fb0bedf9edU,
  0xf2fa09ce00040cffU, 0x26d4fb0318f40df5U, 0xfad80608f3e60210U, 0xe7f5148334fcf4ffU,
  0x7f7fa2a00e02cfdU, 0x3d3f3db0211b514U, 0xec15fe0e07c9c5f7U, 0x509141e12bdcdebU,
  0xc5f221d2fc75fdf1U, 0xf24cd449addeb401U, 0x81d51dfee5074d88U, 0xe40107aae3d71bf3U,
  0x4304f1fbdadc93feU, 0x81e10021b7c1fbacU, 0xece9d6261dfde9e9U, 0xfaef36032314f9U,
  0xf24f50513f918ebU, 0x2fee090481ed4a26U, 0xd6d6151047ee1bf9U, 0x23e9f14000ed18f2U,
  0x39c18eb4609b401U, 0x1e713fc17bd8116U, 0x4d822ee1be1f1ebU, 0xdcce29fcfb3803f0U,
  0xea6ae5051cf10505U, 0x9ee32cfaf4e33500U, 0xf7f809aceae501ebU, 0x24e203070dc6c00aU,
  0xe3d10248d10602fdU, 0xffcfe0820e7eff7U, 0x17bb0bca001102fdU, 0x19ff0616ff0108fcU,
  0x21f4fad2eef2161cU, 0xe4eb14dc1bfe33f6U, 0x10f6033710eb2d05U, 0x5c7040a1100cf2aU,
  0xfdc8fee40daea8f1U, 0xf0dbf2040af2ccb8U, 0x20ee16ce0d2813e7U, 0xc03eb08bce91509U,
  0x9bab0109fff4103dU, 0xf705c7270b00ebfaU, 0x1901040c11e1de05U, 0xddcdf33be7f5e2fdU,
  0xff5f01431dff6f3U, 0x15a601ee0624faf5U, 0x20fbfe000404140aU, 0x9ec20fb0ae1edfaU,
  0xf4f407f5e80d4207U, 0xfd091726eefd1013U, 0x1cff732fe04ef24U, 0xfffff1620ec3add6U,
  0x432000000181U, 0xfffff66c000001afU, 0xffffff5000000ea7U, 0x11df00003108U,
  0x48a000000104U, 0x1ab500001781U, 0xfffff795fffffa59U, 0x20b2000029f6U,
  0xfffffb5dfffff7a6U, 0xfffffa5efffffe47U, 0x22600004566U, 0x2ffffffff9c3U,
  0xfffffde40000049eU, 0x4fd200001a99U, 0xffffffb6fffffac8U, 0x2ceaffffe740U,
  0x1d76fffff3b5U, 0xffffff2500005d17U, 0xfffff331ffffeeffU, 0xfffffd3f00000050U,
  0xfffff28100000090U, 0xffffd85ffffff8a7U, 0x2d1900002bf8U, 0xfffffc84fffff505U,
  0xfffff4c3ffffffccU, 0x2452ffffe810U, 0x1e65fffff7adU, 0x12200000219bU,
  0xd17ffffe835U, 0xfffff1b800003f94U, 0xfffffa11ffffff41U, 0xffffee83000011e6U,
  0x2efffffa41U, 0xffffeeb90000516fU, 0xffffe0ddffffebb3U, 0xfffffb70fffff895U,
  0xfffffe7cfffffdacU, 0x9e0ffffea29U, 0xfffffa3e00000f9fU, 0x6a30000291aU,
  0xfffffd0cffffffe9U, 0xffffe0ffffffba88U, 0xffffed7ffffff5f3U, 0x2f5900001dc2U,
  0xfffff02e00001da4U, 0xffffc801ffffdf72U, 0xfffff701ffffe564U, 0x194bffffdb5cU,
  0xe1600001dc6U, 0xfffffb6c000005baU, 0xfffff4f1ffffc4ffU, 0xfffffd3efffffc9dU,
  0x8efffff0e9U, 0xffffd3ccffffd4ffU, 0x26b300003104U, 0xfffffba9ffffcb70U,
  0xfffff423fffff7efU, 0xfffff727fffffc17U, 0xfffffafc0000299fU, 0xc500f31800002ec0U,
  0x7f93141c31206d5U, 0x5c2cf5111d2c3d38U, 0x7d0aee1c5908117eU, 0x3e39425ff51bc20cU,
  0xcf431145d9fa140fU, 0xa8fb3fbbf104431fU, 0xf11bf1a09e62f09U, 0xe6f5c920c0ce42deU,
  0xd1d915e7c2ceacb8U, 0x3615dae5fba53e41U, 0xad360de227fb56c4U, 0xddee7d0fad11bd7U,
  0x22dee22ececc9dd0U, 0x7f15ef24130bf0eaU, 0xf5b9e6234b0f23fdU, 0xe0f21d140900cbeaU,
  0x9083f1b3504ebf8U, 0xdf3004c7e0231a2dU, 0x91f85f002adf0eb2U, 0xf6c7f3dcaae23120U,
  0x9ec02bee84ec1ef6U, 0xef210e3fbf3de1bU, 0x1321acde15cf2481U, 0x44c4e41bdbc7e304U,
  0xe337f3d3e4e4d1U, 0xebaf0d241a1c40c7U, 0x1ef7d7dd071440f9U, 0x48de07bce3c0320eU,
  0x1b363526d0cf9b2aU, 0x4cca24c80beacefeU, 0x56f7e2ae0c0dc8a9U, 0x4e0520f0d7c7c7f0U,
  0xdb21198847b185a3U, 0xf31699a3c5178238U, 0x9383c630e01300e4U, 0xa1d9313c8643e1f4U,
  0xab4631a64823c634U, 0x248e3244c01b0838U, 0xa042fd9e71c310b6U, 0xe30cbe57f51e9ec2U,
  0xe18e9759cd43885fU, 0x59878993d0c78888U, 0x4b81b4e58605c684U, 0x5ec5193b8f18c315U,
  0x12b02a87a123ea0U, 0x5bd3fbfccedf1ac6U, 0x1d0803f828b5def8U, 0x41fb0f00fbb22a26U,
  0x4338102b1cfbef29U, 0xdee32019e412e5fbU, 0x1e1bf68159b125e6U, 0x291744014817de05U,
  0x2599e929e93601ecU, 0xe6adfddb20bf0741U, 0x30ed90d11bb803e8U, 0xe80b2815330210ffU,
  0x319eeedd01bd4a2U, 0x6e512edd1bdd629U, 0xff063afed70900bcU, 0x1fd131382dff4cd9U,
  0xac1aacf0e02836U, 0x420bf5090bb016e9U, 0x204ef3e00bae08e6U, 0xeb453af93c0fe548U,
  0xd499f3e64b30444aU, 0xe6ba312a81e98ef7U, 0xa6d710b117f5cd07U, 0x26eecd9e52a1e1eeU,
  0xe214973119a1bf2cU, 0xdea71cc49b0b95afU, 0x468fac23f4f5f5faU, 0xe217a715c1c1243bU,
  0x6deb148cace87dcU, 0xff97c8b69e47affcU, 0x17abede02e074e17U, 0x361af010ff3e1ec8U,
  0x29fdd20b3fb80b1dU, 0xf43e340dc2d4e31eU, 0x1103f50fcbce4d12U, 0x3215dae5361af003U,
  0xf72a32c163cd39e7U, 0xe8ec2bd319f73eU, 0x3deaf3813cc6453dU, 0x15ef21f96ecc13ceU,
  0x1bdf952e71aefe31U, 0xbd0606ebdbe2a4edU, 0x13f8e32204fd00bdU, 0xeafa54e00de9cabfU,
  0xf52f7b0bb54f1320U, 0xd9fc3f70ad6f00cU, 0x9d57b10dd0b098fcU, 0x4e0d1c15900902d8U,
  0x42ce4a38f11aa64cU, 0x7080eed57a8ba0cU, 0x9292d2bea1e990cdU, 0x10c499cc07ecc405U,
  0x1ec9c3cbadddcd07U, 0x3925c94681b1ae97U, 0xe4c3441d5dd846f3U, 0x42470432d3cb9a2cU,
  0x5dcc82393b1194f4U, 0xbcc7b10decdec4f9U, 0xac033640feec1299U, 0xc2c5841ef5f891f3U,
  0xcc1b274a45e6bfceU, 0x32c7141839d6094cU, 0xf01820f9f809c4fbU, 0xfe3d4056f8f5fae9U,
  0x30d9f51a0436060bU, 0x2c0f325f041d31f8U, 0x162ccc06b5bcae05U, 0x7f62033d2b09de9U,
  0xbe31cb61c0b0021U, 0x1cfca30c359dff3bU, 0x18d939ee0b01c10eU, 0x84954aee102ea58U,
  0x21e4513eba643bc9U, 0x12f8e4d4edfd10ffU, 0xf97ffc2f41fed520U, 0xef09020eb32715eeU,
  0x2706430bc1140f17U, 0x1a133d2dd2e319ccU, 0x714c9171d0d8130U, 0xe621062d0b0adfabU,
  0x3018fcf005fe0328U, 0xb402f41ef0f11b34U, 0xd7dc0115f0f6f9cfU, 0xe4bc1e08e91d080fU,
  0xc41dfb03dfb391f0U, 0x3547c30105260906U, 0xf49319e61e01f521U, 0x2626f1eaf703f5f2U,
  0x4017edcbcfcac1efU, 0x2122411904fae44bU, 0xf60cc7fe0618f321U, 0xc6f71fee27540909U,
  0xd9ed77efe047cf23U, 0x5340212025c4206U, 0xe9addf2e253b01beU, 0xd700f616bbc81359U,
  0xfdc6190896c80eefU, 0x2432fb22dde31f0eU, 0xab3274aa84bf25dU, 0xebf01aff200dd0f2U,
  0x2d0d442d40b13f3U, 0x27ff681afffcfa9eU, 0xe5eb2e274d20d143U, 0x6032dc2549210633U,
  0xcfbdcd08f5f42093U, 0x1b34fdf6307fff46U, 0x4119f71836db1eddU, 0xbcda8f1651cfac00U,
  0x17f50afe07a73c04U, 0xe62dd31bfac81936U, 0xddba1ef03cd73ac1U, 0xd5f4d8cc0a223df9U,
  0xe81dde26f30cc8feU, 0x2f2b0d81e7b81a0bU, 0x24d9fbd934c65005U, 0x26aef3ca4adbf2fcU,
  0xd038d9f9080bd233U, 0x3eb25f4cd19b09aU, 0x8cbdd505c2fd1efbU, 0xbb0cce0bcb271700U,
  0xa8a3baf2f7eb13b4U, 0x8bdeae324df8f7d4U, 0xeb8121ae421890e5U, 0xb70ad828a5f7ba3bU,
  0xdae0c6071f49592aU, 0x50a953afda898ec2U, 0x871248ab86a942U, 0xd1e142038d57473bU,
  0x4c8eb206285d32a0U, 0x2f3897f1c5b91dfeU, 0xf3cc8349e4d83b17U, 0xb30c900295d2d4dfU,
  0x2b4e03d2e1a72ea6U, 0xf819af28c0b249b7U, 0xf0d51eb496944aa5U, 0x6a50188272c17bdU,
  0xccbfb4598eaacbbeU, 0xfa023dddb3a8df2eU, 0xa832f0e0118de905U, 0x16e6d6dbf1c4a03dU,
  0x9cc5b4e412a9043cU, 0x2681ac4fece25111U, 0x341940c28aefd6e5U, 0x97beb4b2cc9f1043U,
  0xa80cc3f59af183ffU, 0x3427e02c36f3e2a7U, 0x221b09fd3af3c7fbU, 0x3c90b3d7f6d112d1U,
  0xab462fc550b1204bU, 0x27de1bd98dd6971bU, 0x9624e129330e47c1U, 0xc6cfcfcfcc9a9ac3U,
  0x229d9de89d1487f6U, 0x8e5f8cecba6b91cU, 0x3bba2c2d9d22eb1eU, 0xc302e83eba30cfadU,
  0x33f7e6101edcc03bU, 0xfc030e37f4028b46U, 0x1bfdca2a05e4de39U, 0xb9b105b023c0bf30U,
  0x15939fbbddf20a0fU, 0xb21d9cf2f2ca0220U, 0xd7a4b19d18d71106U, 0xeeb90b12e83d1c12U,
  0x816515e2cabc08a2U, 0xf4bcf04c23b0b4e4U, 0xbdd2a5c413260102U, 0xa1bd6fa03391321U,
  0xd6fee4d3e3283114U, 0xe215f31cf8f704fdU, 0xef81c3a939f21eddU, 0x21f4042ae0e207cfU,
  0x2d1ed3e8dcfbc6b4U, 0xf339824326cae4e0U, 0x4cf2f0cacf2708dcU, 0xacdf4efcf327fb15U,
  0xd8dcd9c9160c43faU, 0xee1d8f9f9123913U, 0x1f9cebe213f10824U, 0x3420b09a413071fU,
  0x34b23ee207e9e786U, 0xf40a00f9bd17bc29U, 0xb5f53ae9e7e20611U, 0xadb39e3b7c11ed9U,
  0xd5f5b60bcef59805U, 0x15b8a3c62beae6cfU, 0x2c0efde939cde5c8U, 0x9b70e149ea0389dU,
  0x28bbf6e80cf221deU, 0x3fa039dfc28120d0U, 0x90312bbc19c8bdbeU, 0xf03b1d214ead5e8U,
  0xb3d5b90c13033827U, 0xd334b29c9fd4a8e0U, 0xa03948c1ec1c39b9U, 0xdfd89cbf2739efabU,
  0xf8aeff06f3c4c495U, 0x3ff1cd812a6b1a9U, 0x85bfa32a02f90f99U, 0x90d9a40ace0fdd01U,
  0x669f3956f4e5a11bU, 0x19b1d8f54f29f88cU, 0x43a1ff283b9ecc81U, 0xbdd9f32281463908U,
  0xb0f8aae14516debcU, 0xd80ad6d551259288U, 0xf99e4bd9fc3dcc50U, 0xd945cedf5693ee48U,
  0xbcd0a2d9ee869a12U, 0x15431aced514d13aU, 0xd34d30f7b5db5044U, 0x9221e4fb3a0fdbd0U,
  0x9a11ec085fbe12bU, 0x38d1d60995eef537U, 0xd50aaf05e2cdb6dcU, 0x54c458f2288c1deeU,
  0x8c513144ebd60b0aU, 0x2d23b00d9941f399U, 0x463002bd42e0e1f1U, 0x4efafe914e19cbd7U,
  0x3d1254a0a5ddb0d1U, 0xd01a81971a36d814U, 0xba192e9a15df08dbU, 0xb103e030d20bb09eU,
  0xeaed15f9f01f9f3dU, 0xc747c9c58f88aefbU, 0x3ce5f225edb224f5U, 0xff04fa2e3633fadaU,
  0xc06a62920d8a41bU, 0x1bf4354623ebba2dU, 0xe3e5f60a9f3c3fe9U, 0xa7030cabd6e409d2U,
  0x1efa53f315fed5f7U, 0x13b928c6fd0023fbU, 0xc9e0e2f834bd810aU, 0x3bceb9e245f70936U,
  0xcf222102d4e100cU, 0xf2016ff24bdf80eU, 0xdc04321f1de8abadU, 0xe2321100fa4104e8U,
  0x444bc71d01d020eeU, 0xffa0a725f2cad6b1U, 0xf4d3b1cedd94d738U, 0xd48127f7380402ecU,
  0x9a4938f7a51dd249U, 0x393014ca0de03e03U, 0x29ad42f9eda3fa1eU, 0x93e5af0f32a5caffU,
  0xd9dd3314d093349fU, 0x3c13daa3dae508bU, 0xdb41e1ffeadbcd38U, 0xaacffd3ba2a3a489U,
  0xd4173b563d9e42b8U, 0xe6cd288e3a3049d0U, 0xd4852129c58b9eadU, 0xa83fba9ff636f0ccU,
  0xcbc72b910fb003d7U, 0x4500fb06b3e1f8c6U, 0x4eecde9a102344d8U, 0xa4a6331508a6ed0dU,
  0xf9d5af253ea6999bU, 0xf13e18c7e8f2e4e6U, 0xb21ef3d024b912ffU, 0x212a1422ccbdef52U,
  0x2dfbc4a9f7c0c1d6U, 0x3ddc459f98b728ddU, 0x222432c6a714c22dU, 0x812fa8f117c2003cU,
  0xee4bae9ca3e020a9U, 0xe625afec15b0150eU, 0x1805031ca9333197U, 0x2dedd3f913cbd6b3U,
  0xc5e6df111c078220U, 0x40f80138f53456d4U, 0xc001a32ffcaa797U, 0xb5b4e6fcf69b14b3U,
  0x9cca2fe8a441f779U, 0xcffe412510bebf7U, 0x4b060bff05d3b1a9U, 0xede100239a51f9ccU,
  0x26bd48fbce7f06d2U, 0xc1a2b74147fee7d7U, 0x45b93015ff2d1fe7U, 0x1d0cf2ff21150ed6U,
  0x2fc30b19c9d8c7aeU, 0x847fd020224d8d3U, 0x1523c6f50ad906d6U, 0xdef90d470919dad9U,
  0x6fabe31ee32fff5U, 0x332b1f314ddfbdcaU, 0xdf0f0506c4dfa70aU, 0x20f2eaed2125f30cU,
  0x4e916f841e6e9ebU, 0xefdc13ac43cadd5U, 0xccf711e9d409b40dU, 0x42df0feacd2e00dfU,
  0x9812933e9de21e5U, 0xf4fc27ff18d8e50eU, 0xfdfc3aef2303dd19U, 0x4504041c22b8010eU,
  0xff3e561023e7b4eaU, 0x5a5ff4fcf6cb0210U, 0x5407b00c321bc812U, 0xd1cd0ef0100eeec2U,
  0x443406072ecc2cf4U, 0x2311f7030515c80dU, 0x31d8e0af4e51c028U, 0xdfaace45a0c04f3U,
  0x682fecea2b2fa71bU, 0x4322fbf8d41c2affU, 0xe3d80706eb2011b5U, 0x22c8fdc7eed81553U,
  0xbdf61c41eb5e0fdbU, 0xffc80ebda5011ef0U, 0xdf1e7ff007fe0d1bU, 0xe0b8b10214ed010fU,
  0x1af8f8fd2cc2c4ebU, 0xc0dcca0e355a250eU, 0xc0d7cff4b9fc21feU, 0xef305c1b0d0de301U,
  0x2739b810edf7a62cU, 0x36b9f451ad58c0e5U, 0xf20cdbf02c03a106U, 0x5c04f44dc60a910eU,
  0xd826ffc5d8742d28U, 0xf2406822d3f050e9U, 0x41c5d0dfe1da102bU, 0xd7211df248ef0b27U,
  0x2a21c7050f1ae87fU, 0x13dee4e264d010fbU, 0xc102d70633eccd36U, 0xa80ef8dea8e9eb03U,
  0xdbfbe00623eb3826U, 0xd6dea2c6f4231ffcU, 0x19fe2107edf59e14U, 0x11c07e612ff9a0bU,
  0xe2e70f12f624d000U, 0x1602fd08feead400U, 0xc1dd408f3d5c5d7U, 0xebfdeff4de2e14e3U,
  0xf10c131f811a221dU, 0xf10ce216090d00ddU, 0x11df02def0a2f611U, 0xd9c4d4f4ebffdd20U,
  0x1ec801f515c419ceU, 0x192016ed270900ecU, 0x3e3729181dc713beU, 0xddf395ee12ef00e6U,
  0x1fb7d42011bf1ee6U, 0x592acef9fae0f708U, 0xf319f920ca19e20cU, 0xe813fed8241edc08U,
  0xcde1d200230a0d0eU, 0x15d92ba13227ff01U, 0x40f00ec090c0cf3U, 0xf6ffbc0d1605e9f0U,
  0x19f4e2f612019a03U, 0xfa1310ecec02d2d9U, 0xa828311ae70b2381U, 0xc4d6fd29ecf13a11U,
  0xed0ded3fe5e7f62eU, 0xd018e8fa6a28f721U, 0xa02e36c9c4f8de44U, 0xd5752a0ebbfaf1e5U,
  0x10facbda47ff6b01U, 0xd9fd0cf819ae1b52U, 0x7f09c041a42cbc10U, 0x1814483fffba5424U,
  0x62f9e44f0b13254fU, 0xce032720c3ebd9f2U, 0x3f110e3f153cea12U, 0x703f44d70efee0b2U,
  0x4075e062a0c0913U, 0xd4f51636590cf21bU, 0xaedafe124bc65328U, 0xae4dcbf119f94c66U,
  0xa54ecfd6f7eb1a82U, 0x4c021c8d0a284a10U, 0x9fdd0a2b8121a6f6U, 0xb314348412322ca9U,
  0xe89a58011ac62757U, 0x69aaed190488a96U, 0xbd30c5b5171291eeU, 0xe9da51a633b3a7d2U,
  0x9008950b97b116c5U, 0xf714f3d2b2578753U, 0xc1188727e02c3619U, 0x49120200dae71ee8U,
  0x1ddba4e298361195U, 0xd7b5b2862af0f8d5U, 0xa00370b0414c858U, 0x943c00f39e238f5U,
  0xf0db9cd839dfd342U, 0xf9cdfbc038e520ffU, 0x1e0e3ec0fd34f7f9U, 0x1a3010e647d78fd0U,
  0x392d0bd42a061816U, 0x25eefb332712c2dfU, 0x101592c9351fa5c1U, 0xd51b001f1f387f9fU,
  0xf616fdc0b1ac1af2U, 0xbd071c052a96dd68U, 0xc613dffe0802fa07U, 0xc5dfe4eeab1bebe1U,
  0x9edf919104c0d17U, 0xfdf2dc2cU, 0x0U, 0x0U,
  0x0U, 0x0U, 0x0U, 0x0U,
  0x0U, 0x0U, 0x0U, 0x0U,
  0x0U, 0x0U, 0x0U, 0x0U,
  0x4604faeb00000000U, 0xfefed00e93e9001dU, 0x167f22f8d4fbda02U, 0xf60dcb0cedbdbdebU,
  0xeb0ccbec32253a03U, 0x18f408f913d74be0U, 0x27db147f27f23018U, 0xef20db19402ad233U,
  0xf41b35cf15cbe936U, 0x179ee0ee2343c107U, 0x8df599e50d6ce004U, 0xff5dad04f7819019U,
  0x3ee3b5206843eee6U, 0x32e64aeaf82abd7fU, 0x1c62a21634e80f24U, 0x3b1625b39815a88dU,
  0xd2ce093bc72fce29U, 0xeb23e801deb5fd28U, 0xea7ffe2a1718fa08U, 0x53fd1023077f04f9U,
  0x49f8f915ba340e43U, 0x3d32f3f328171db0U, 0x18d4019217fd9465U, 0xd31eea100dec44abU,
  0xffc5ecd816a70023U, 0x1d2a6df20b29d4f9U, 0xf0e0b80cd67f1ff2U, 0x44a55f045cadeccU,
  0x2001cf140b9edf6U, 0x36ba1e7cee231d23U, 0x813527c02115007fU, 0xfc2f490ff2cd9515U,
  0xf80d05ecc4e0e1ddU, 0x59bb2e13ca37f708U, 0xf7d613e0ccdadfd5U, 0xe333e1f3cd202cU,
  0x68d8fcc40ee82a0eU, 0x56ed193cf9317f19U, 0x701f2e12825fe30U, 0x27e8090426810505U,
  0x2324fd23ea1ed600U, 0x2501fa05be45c1b4U, 0x52c527c8bdf1dc2cU, 0xfff82b06ced9e670U,
  0x4660b1d97fdf15a2U, 0xda093f04fb1bcc90U, 0x2ff3181325f2001fU, 0x157fe5e9cfd1f9f4U,
  0x542d003dd2f1be2U, 0x5afbeccbd6a9d519U, 0x60b121ea9bd29d7U, 0xef202a06cadc0356U,
  0x21d6cb7ff4b2ecceU, 0x7f1abef835d2bff1U, 0xe4efe52cfb11d530U, 0xe31ec82ffa0e0fe5U,
  0xaee0de5f73c130bU, 0x240d031e1d03f3fbU, 0xe8ea097f2529251fU, 0xef6b3c232fe5fc0eU,
  0x29400b0d43fe473aU, 0xcf1aef55050754daU, 0xbf7ff30810c4b1efU, 0xc9a4a307e725fc20U,
  0xd1afdcff8b4db26U, 0xde26f3fdd51411eeU, 0x22ececbef5b9dfe1U, 0x32fadf7fd9112b4aU,
  0xc2fbdf2bb822d281U, 0xe9dfea1c03b3e8f2U, 0x35331b0010c5040cU, 0xc2b802d63a29e9f3U,
  0x209a98fcf7e177e6U, 0xcc2814c620f0fc7fU, 0x4a39bf4e28dbee17U, 0xe3d230ee56d54e6eU,
  0x1769125427f2f61aU, 0xecfd4deeb15f619U, 0x3ce0a5ea317ffe00U, 0x3309f7dd0a39141cU,
  0x20d911038122191dU, 0x3c101395e0e8e108U, 0x7f1ca5dd1dbb5f19U, 0xeb2657ef7b1b52faU,
  0x2e3e621e77f9c50U, 0xe3b5ec1cee3dcee9U, 0xf51b67d7adfbf4edU, 0x52a019ca360ceb45U,
  0xe2822bc131eba0dU, 0x493ba4237fdef40fU, 0x81f52932d622d7f5U, 0xff0707cf0f10b7e8U,
  0xfebd2bdf0fe02dffU, 0xb8e8d3c905e83ef3U, 0xe1dc08053818661bU, 0xe1f2f7d5c6c9db1aU,
  0x52230aff25e61ff1U, 0x450e81582f03e549U, 0xe627b9f1afffeeb1U, 0x121ef79c0d25f0eeU,
  0x491618dae181e8c2U, 0x28c301c0b33804f8U, 0x1a0dfa0ceee6db0bU, 0xd0e8ee21e1ee17bcU,
  0xe1793a42ff03e0ccU, 0x1221f9fd07d87fc6U, 0xf315812f2e2c5cf1U, 0xfeda1c130ea1f9f0U,
  0xcf64268c26dfaedbU, 0xbfd0d843a861a82bU, 0xc310e84c816da90bU, 0x5bfbb013f41db9a3U,
  0xfdf7a3be13c5f075U, 0xf7337fda2e315331U, 0xe14f0522353c08c4U, 0xff362efdf82de419U,
  0x10523cd4245909dfU, 0xbc37c115153cf20fU, 0x192e081cd005f181U, 0x54d3e4f6e7d3ec4bU,
  0xcfc8edb60fd7e060U, 0xd8c4360d1fecf81eU, 0xfca42b470c81cd1eU, 0x5ea2c4151cfca3c0U,
  0x58dce320308159f3U, 0x51c244326ea30ddU, 0xe0cfdb16dcd2eac9U, 0xd836cf5fffd60bd4U,
  0x2dd38a2ab731f293U, 0xfb9b1ad606905e16U, 0xc07f0ef827094113U, 0x31a7a211092e21f0U,
  0xbff2f216c01be925U, 0xda12e523f8e51cf0U, 0x2e9060b0de6f081U, 0xe2ecd7d72b1db55dU,
  0x47ff3b6d40b12fdU, 0x19ebe5e11206db06U, 0xd9250d30fb055610U, 0xea0dd4f31adbe6f9U,
  0x19350bfbf1e2b31dU, 0x610f119fd834e5fbU, 0x4de309c97f1b346cU, 0xa938e80ffdcf367fU,
  0xb3b4ccffce48f7f0U, 0xc31a7730d6f2d10eU, 0x5178f73cf3856c04U, 0x223b35e1c0a0054fU,
  0x1634e3be3809dcc0U, 0x5a20e74a1cf6eb7fU, 0x48d4d73c0451e674U, 0x29f289d0ade10e0eU,
  0xcfe70b01b8000b1aU, 0x81d35adb21211622U, 0x45f63e5d20876b32U, 0xedabb6dc5dd08f3U,
  0x195eeaa23b1152bbU, 0x488f187ff7fa50feU, 0xe8bde11bc509d468U, 0x305ae2650224ee1bU,
  0xbd8131fbff3a2d15U, 0x58daf8074c4601e8U, 0xde7c000d2098ad6U, 0x1d0add7f1cc016eaU,
  0xd7169e0ad4ba2224U, 0xf803064fe9e528feU, 0xd8e83dc6fa0ff114U, 0xefcc1bf91d3032daU,
  0xaa0fc1cb20ea810aU, 0x83bcb4bd33ea06d6U, 0x4762e335ab7f4bd0U, 0x1707a260a6e7f890U,
  0x12a8430aa6406c53U, 0x11f91fca7fdeac29U, 0xdfacf4f8ec033cecU, 0xb463ebfcdcf7ceffU,
  0x1447eff50405e0c8U, 0xadfb54e9f413de3aU, 0x9fdfea0f2ea19dbU, 0xd12197f6280cedeaU,
  0x54e511fc263281a1U, 0x3e33e9e72eb93003U, 0x9e1d0c9f9a303dbU, 0x8173c8d53533153bU,
  0xe5f527dbb6b87a3eU, 0xe901fb77e9dcf006U, 0xe7db01e3e0efeff4U, 0x7f22232a04082c04U,
  0xa516d2ceb0d22c4eU, 0xfd36dee00be8f3e6U, 0xf40f41f823cee8ccU, 0xb11c50e781c01b02U,
  0x22291617ecb802e3U, 0x4cefeeba073caeaaU, 0x33bc648177f92a8dU, 0xfcf10a44bbc0f842U,
  0xfbce1c0c4502d010U, 0xe844e8ddfa21fd30U, 0x16c8c4e4b30bd2ddU, 0xb5b368ccbbbc8110U,
  0xc1d784ed21d046U, 0x96172a162a0dfa7fU, 0x581b990c970ff80fU, 0x3eefa5e6e1f26ce3U,
  0x29e61805e0810366U, 0xe20d461a32751ed4U, 0x7df8ecec4f640d15U, 0xf2751800bcd9fb3cU,
  0xe1cdf827d6edd80fU, 0xe87f3d2828d825f2U, 0xc4143f7fe42739caU, 0xcd23d5da98e214ffU,
  0xf6b713df2954e003U, 0xd8bc11b2f00c2bf9U, 0x2e09b332f3369a1bU, 0xf3d1bc7ffdd2d537U,
  0xa907d4f23acdb2faU, 0x48cb20e803322ed1U, 0xabd6241919cf1fceU, 0xb9aad9dafc18bf4eU,
  0x2a3006f4cc1f0610U, 0x314fbed1f37fdc09U, 0x6509c4d7c816e5eaU, 0xde11137d0fdfd792U,
  0xfd7fd84e5200f347U, 0x31299e3fd12402abU, 0xd817d8e326cae6ecU, 0xc082f261b1ce212U,
  0xdbee7f2e2a54d4c9U, 0xed12d708f8ba08e7U, 0xf033110ed56d5ae7U, 0xf5172014283627d2U,
  0x7b19d8517fee7643U, 0xc5e3cc00f108a616U, 0x1e7f12fee2e351e9U, 0xa1d1cce9c7cbcd2fU,
  0x892fe7ced9a7aaefU, 0xdc3289e92ddf7413U, 0x17d61e8ff22bbfddU, 0x7f1ed047482a3624U,
  0x8fec27100dd2a4ccU, 0x225239291be42b0fU, 0x3a0df41ce2013655U, 0xd58114c1c5b7fe40U,
  0xdf550e1a2c2f0f24U, 0x10cb521fdc4fbfd5U, 0x2fc232c6c444a8d6U, 0x2400e0d03b2f813eU,
  0x1919422c740d0a57U, 0x19bb43f2292d4209U, 0x8116e1e747600a2eU, 0xf4f3e633c72b2ccaU,
  0xc07ff3e3cefbffd6U, 0xfe27048b14f6f6c5U, 0xfd91a424d17e0efU, 0xf91333091c1cade5U,
  0xe656c0edd82cd7d2U, 0xef02ea34da1feedbU, 0xe7f5f013404fd0dU, 0x234402ed45811bf7U,
  0x445aec810b222ed0U, 0x9442cced15f00117U, 0xa82f69f61203005fU, 0x3c134a2052f1f426U,
  0xcf4131bfb50e838U, 0xfa1638e6f87f16e4U, 0x43dbdfea2a3bfcdaU, 0xde18454208292314U,
  0xedcbe67fd32ec751U, 0x4f3444123ed8a8aaU, 0x28177f4201fbcfe9U, 0x210306e41ce2d6ddU,
  0x80a382a0f03fbc1U, 0xdc971c258fea36d3U, 0x351b1ece0c05e31dU, 0xc438f443973fdbd7U,
  0x502f22542dbdd764U, 0x1324927fdfc50fdbU, 0x382aae27f0f36153U, 0x3657242be5022adcU,
  0x15f03ade1d2632e5U, 0x9fe443ffd7c47f27U, 0xbb1f2c2d0be50efbU, 0x2b1607bdfc070a3bU,
  0x24d2b981d1db05a4U, 0xaee730b6faf12dfaU, 0x236fd9afdcd43911U, 0x58137f11325f7f0U,
  0x3d091b14086b38f0U, 0x31e51fce32cd2202U, 0x12240b0981fc5027U, 0xd7041239ece6e5ebU,
  0x31f8c362dcf63e2eU, 0x21e91f470d4b265bU, 0xe1efe0ccf10c17eaU, 0xe01951ae642c40eU,
  0x2d531ce24f118145U, 0x672dadcec21e62eU, 0xd014c8f8ddfee381U, 0x4a184b4174e61ff9U,
  0x7fe402e91fc7340fU, 0xfe55e6e4e8f7ffd8U, 0xd32707e1eece1d2aU, 0xd045c1b0ebb7e3fbU,
  0x29057f1e091a06dcU, 0x5d922470920e902U, 0xf0ceefd409320005U, 0x3310ea5b28d7f404U,
  0xae1b9d11eda9b81U, 0x4bc5badeee24b8feU, 0x3d06a2b32c720b3cU, 0x532b05ebad2a0dd3U,
  0x1a15b4192ce8dfe0U, 0xce1bf5b2cbd3e3cbU, 0x98daebcabddd0681U, 0xcd4c9ebfccabbc9U,
  0x390abb0cd6ded0cfU, 0xf530ccc6f928e80eU, 0x81ce59e697511e10U, 0x406031bf002cacfU,
  0xf9e2e97fba2e71f6U, 0xd00ef7c72a1528daU, 0x5b28d7e4bc0cedf7U, 0xc2144734fd2b593dU,
  0xef1be7cb23e3f205U, 0xd841290007eeff1bU, 0x127f0adace4e81e9U, 0xe54483413ed1e38U,
  0xc9f229b8ddf1c50dU, 0x2127505820de2319U, 0xf4d311960de9dd0fU, 0xd52a0dd9f703ef28U,
  0x19ffd9f1dfdb1111U, 0x3d7fe4d1c4f21fedU, 0xcc6a048bd64c3ddU, 0xfc30c739207fa1e0U,
  0x5ced9f1cae0513e0U, 0x672ea49145ed2137U, 0xe2fba03c05db8853U, 0xcaa5c4cbdb81ff3fU,
  0x49e8e7c5f803dcb8U, 0x2b1aca22aff9d0daU, 0x93b3cd400d14909U, 0xe814cdc9dbe4f1edU,
  0xe3b7e8017f142018U, 0x23f2ba4fe706c224U, 0xc630c1817cd7cbf6U, 0x362f3e1839c1c5c3U,
  0xae8dc5c2b019f3ebU, 0x171229fcf0f79eeeU, 0xfc1ed410fb0bb3dfU, 0x41ebed2bf7c9d6aeU,
  0x7fc2f03014c906c8U, 0xd4f819f5fbfab706U, 0xc900dbd819fae1b9U, 0x28ecfc2cd3d60ae9U,
  0xeee4f6e9334a7f35U, 0x81ed2841442cc8feU, 0xdde2d9d3fa3dba0cU, 0x139624e32f14efdbU,
  0x4b01f4f82dd4b74fU, 0xeabafff0e63af9c2U, 0xd67f24ceceb71c43U, 0x223b0ce3e6350111U,
  0x34123fbf40defad3U, 0x149809f55a7baa3dU, 0x810a264b3509ef67U, 0x15050aab272848f7U,
  0xe0e9b73824383508U, 0xbe2ff8f3fa772b2aU, 0xf6537f22ddc218cfU, 0x143437d74259a9e2U,
  0xd3fef7e536e9370dU, 0x3ebcf1b200eef7fU, 0x251630c51ffadbc0U, 0x17031c1c2fdfdc48U,
  0xe1f6c7fbebea62e3U, 0xcc16fed8f81912c8U, 0xa67f3cc1fbd5121bU, 0x190f37e9c6413ae5U,
  0xf824e3e4f2280004U, 0x810ae2e6e0f0fdabU, 0xfbea1a08cfa0c2e6U, 0x14e801223f3f6779U,
  0x2ef0d73be056d934U, 0xc67f1d2c236b0e02U, 0x353cdfeee0be4cebU, 0xc6c1df17e91b1fc9U,
  0x1b2bf92737d3d041U, 0x2e125c10e52aecceU, 0xb106c9c73722c17fU, 0x22f13150b8174cedU,
  0xc701c9beb4ba380bU, 0xf78a5d091f7f64c2U, 0xe818b02bd9cf0ba1U, 0x12f7e27f009e022cU,
  0x422519c0e8ca241fU, 0xccf7dce17037cca4U, 0x7fd147f54d06f31dU, 0xe409011930315d7dU,
  0xfcf24e8fb292439U, 0xbd1c37f75b55d9daU, 0xbef595d633df67f0U, 0x271110bc2bf93da4U,
  0x47f10f8f81feb839U, 0x65d915c2741016b3U, 0xd7d9c538eee4070eU, 0xf335edf10b02ee2cU,
  0xcd5edaff1bbcbd1aU, 0x811fa3eb3c087f29U, 0xd1eaea1c0a22d3dcU, 0xde05e20efdd917d2U,
  0x1200ff1ce523d939U, 0xbd13bde5e0085f05U, 0xff24e9fafecaf4daU, 0xf7f3220fadce0dbU,
  0x47e30617c21b1116U, 0x38cb591ac734810cU, 0x282e01962fda23a4U, 0xec35b242d7cfc4d2U,
  0x24223144ab276d99U, 0xeee8f13accfefde9U, 0xdd02040aebfb23e0U, 0xe0db28d617ef3e1aU,
  0x3217d313b6f87f1dU, 0xc1815f5e8ce1cccU, 0x81e20435fd2ceaedU, 0xdad72f396005c8e5U,
  0x90c43382dea1863U, 0xedf2f310ca35d107U, 0x1f39161b153810eaU, 0xffe94afa0e7f35fbU,
  0x20810232ac2ef71bU, 0x17540005bcf4cc51U, 0x113b7761e60b2ba7U, 0x4230a357f11eb78U,
  0xfce4e0152ad3fbe8U, 0x150de9f4ddd00efeU, 0xf6fa81b0dcca09daU, 0xd7370ac99978f8dbU,
  0x54b7ea6e8194c12aU, 0x5d01b7f7bf252314U, 0x5be8cea546c30f2bU, 0xa3f03dcd4bbc265aU,
  0xf3c8d00ab67f39aeU, 0xee9fdb3f19ff37c7U, 0xd2b917d3fdb55630U, 0xb0e9dcde3bdd482aU,
  0x9e3e2f2fcfe1339U, 0x35f1210631eaf01aU, 0x55864431da7fU, 0x75ce000053f5U,
  0x725200009fe2U, 0x5e16000090cdU, 0x80a800007d92U, 0x5d56000066eaU,
  0x592e00008698U, 0x62b000007499U, 0x862500005378U, 0x6e2a00007b59U,
  0x717f00007cccU, 0x681000006b24U, 0x62ca00008eceU, 0x8b4a00005ff8U,
  0x71c500007dceU, 0x82e400009f1cU, 0x80af00008833U, 0xb6fe00007cb1U,
  0x51fa000055f9U, 0x8e1900005b31U, 0x894f0000a46cU, 0xa64d0000cfbbU,
  0xa13600007865U, 0x748f0000ed01U, 0x870400008e0dU, 0x6bd6000051a4U,
  0x66710000b250U, 0x742500009a70U, 0x750a00007e0aU, 0x730000009080U,
  0x7112000073f7U, 0x718800008246U, 0x9231000075b5U, 0x72610000bbd2U,
  0x7d7f00005f22U, 0x5e940000ddebU, 0x8133000097a0U, 0x722700008c9cU,
  0x756700007fd0U, 0xb25300006b71U, 0x5f2c00007c52U, 0x9fb2000064d0U,
  0x7b5500008eeeU, 0x6c320000668fU, 0x611700007f0cU, 0xa1c40000c0c5U,
  0x873f000073d1U, 0x74e000007150U, 0x6e0800009029U, 0x794f0000a618U,
  0x61c800006f3eU, 0x8e7e00005503U, 0xc12800007848U, 0x72d3000083b6U,
  0x621800009120U, 0x56660000606bU, 0x59fe00008ccfU, 0x763000006b8dU,
  0x669500008e41U, 0x98aa00009b6eU, 0x16c344fc00005f31U, 0xbc4f60c0cbfe51eU,
  0xff09fec37fd70f10U, 0xbf7d42a23f91019U, 0x1718e4153b8313fcU, 0xdcf1d8bdddebe5ddU,
  0x190d3dfc22fff0f6U, 0x18f343de240405e9U, 0x23db0f11dbe71bceU, 0xf805b4f617eafb1cU,
  0xfecad9c72108fdf3U, 0xdf08ec423304f2ffU, 0xf6b8eedcdbfe0deaU, 0xeaec19f2e6c0fafeU,
  0xdf13abeef042241cU, 0x643e6241bfa1501U, 0xf7dbf1ea1ec12614U, 0xb61eb1f1e10420fdU,
  0xfff8bad600f421e2U, 0xbdc1e6d7f2c8f1feU, 0x1cff0d0d0a260cbaU, 0x1df1c7282416f72bU,
  0x1f81f135f2f4fb28U, 0xff2a0b1436e2c70bU, 0xb2adcf7f7f106feU, 0xed1f35011f3fe9eeU,
  0x3d22b1de2511e525U, 0xf5001cf6d832bd01U, 0xea04f9ceee0f17c4U, 0xe5f6f21128dc0b3eU,
  0x3172c04c80d011fU, 0xf1e02823aaebb0eaU, 0x1218ea0a1cef62ccU, 0x130ad8d713fecc7fU,
  0xfa0f5017faecbcedU, 0x46feb7c2f90ceeddU, 0xb4668dffcae13d4U, 0x121809d0dbd53410U,
  0xc803da2bec5deee3U, 0xdcbe713f0351fabU, 0xfe07f9f3ea3f19c5U, 0xda2bc651baf259ffU,
  0x1511c80b2f033008U, 0x4fb127d9f317e618U, 0x4e2708eeaee50deaU, 0xda0a36eceffc21e9U,
  0xb524c5851845e41aU, 0xf9dbd74db01f5a1bU, 0xcbea7fa20fc2ef0eU, 0xd2371cc5c3feff25U,
  0x1b101ee17db7f733U, 0xf80fea07e63627e2U, 0x950cb01c52c1336U, 0x143da3041134b2fU,
  0x407dccbf33e0101U, 0xfa0d2a1bec88ecb5U, 0xa3bb26f313b50426U, 0xb21c1571e127392aU,
  0xf3d7c2f0bd30dc45U, 0xbb01ee2af2402409U, 0xe714d3273331fde0U, 0xf92bd6b7c8e1d819U,
  0xfdfafe25f81315e6U, 0xb3f0d7a50eeef7ecU, 0x1a0a1ef219e7dd42U, 0x2315ea27c5cca804U,
  0xe6e643d1b828e3d6U, 0xd30b02f042e4e506U, 0x6f30c44e32fad94U, 0xd2da02ece7242a10U,
  0xf0020e108125250bU, 0x6b4084ce9b919fbU, 0xf90f214912a2e5eaU, 0xf5f0e8e540e0f54fU,
  0x30daffc01af8cc02U, 0xe63044d74a2006ffU, 0x2b0a78ccdad6c50eU, 0x5cfa15dd0d4ba9fcU,
  0xbf16edeac4f61119U, 0x28114afc05127a85U, 0x70df0c9221a25c3U, 0xf440e9030f24ddbeU,
  0xdf1004addf0c540eU, 0xa8d40203e7e7bf1cU, 0x421df506f5ff047fU, 0xb7c4b4eed3b41052U,
  0xe22c8a30f114fbU, 0xe1fcab6317de450eU, 0xc032a909fadd15f0U, 0xf8171b250b200921U,
  0x13f5d5d3fb4cf667U, 0xe4bab00a08c013d5U, 0x9d03af17285369ecU, 0x3bfef9feb672ad4eU,
  0xdd854e430cb4db42U, 0xf101efeff443f7ffU, 0x4ef027d200fc48e9U, 0x472b15cd280f2e34U,
  0x1546002311d8f605U, 0x96d93002cd4c0a1fU, 0x6d42902dde538feU, 0x381048fe7ff53fe5U,
  0x195edee7bc0af0ffU, 0x65c63330e21ceadeU, 0xde18b9c3ccea0b13U, 0x49020ae212110ab6U,
  0x2481db2ee204e119U, 0xf2f017f92456b702U, 0x2fc8bbfa3342da0eU, 0xcedcff0b0eaad709U,
  0xf3c72d2444101adaU, 0x220631fb17261921U, 0x16f8aa173406e06aU, 0xb423e2e7f4b8fefdU,
  0xcd42c54e2be70ec9U, 0xbcdacdcde51df1d9U, 0xda4db51a31da0af1U, 0xd7f6eb0bdd113aeaU,
  0xd4a1fb24fe15d9caU, 0xfbb50e2cc4ddf6d8U, 0x69552028f615eaf0U, 0x29fefaf4410f4208U,
  0xd2e5244d08eda9bfU, 0xed293b0fd5d2cbdaU, 0xaec41ab7f7d9c9b2U, 0xe328d8e10c00c139U,
  0x2755d3e1170d1fd9U, 0x48d530fa09ca0010U, 0xdd0ec8d758c5e507U, 0x37d6011d152549f9U,
  0xd701d3faf147edccU, 0xd9f011cfdef4fd2aU, 0x1c47f1c191dfdfbU, 0xd2be1abb523a02f8U,
  0xd33256c74545ee19U, 0x29bff710e12e28ccU, 0xd516d0b44a0663f9U, 0x36e94302de36dfd4U,
  0xfd1c2d04e5167ba7U, 0x44b70fcd27172b7fU, 0xddb92126babbcceaU, 0xef08bafe140339e9U,
  0x2d02c30a5d70d3f0U, 0x4addd00a47de16fdU, 0xde1f5b4e8cadbe3U, 0xd911f2eccbd31357U,
  0xeccaefdd6e134617U, 0x71ed9ed42cf2668U, 0xa18273e0df8c2e8U, 0xe68cbf0bcb2fc3beU,
  0x2f051d033da54ebU, 0xb63ce781adf960aeU, 0xd16d7e90e9ff1c6U, 0xbaf9f2fe6d2f2adcU,
  0x26d7e5a2641eefbbU, 0xb26efdad428af52U, 0xeb571113dee91748U, 0x7215eab73b4ceaffU,
  0x38480b6036e294c5U, 0x2712dc06d70fcfc6U, 0xc60b0012cbdcb4b8U, 0x1614d7d215bd11eeU,
  0x6c5ac60811cfc741U, 0x3fc2c611dff4a8deU, 0xfa18f410e8f808fdU, 0xbbdd29ca4dd2240cU,
  0x617f51939b100ceU, 0x81f9041b78041044U, 0xa8bfdbec15f8fbe4U, 0x2926c18a059dd529U,
  0xd50d093cfaced709U, 0x2c09f4c4ee1771e6U, 0xe1e0e58d8e3ee26U, 0x482a020c3a24c81fU,
  0x29dffb9ade4de8e2U, 0x9db04c838e051bfU, 0x18081420f74ed2edU, 0x11f4153fe3ebdbf6U,
  0xf0c798340e46e55dU, 0xceb311eb094754b8U, 0x240f12101fac1512U, 0x1e072d18e60ee1d7U,
  0xfcaa212f3037fbb9U, 0x7fc2ccaf3c7d538U, 0xf9a9f1d5d83aeabfU, 0x13134bf3cc2629ebU,
  0x221ef60525f0b9ffU, 0x73d91be4f12d2c2cU, 0xb4992c1630cb2e2cU, 0xef6a3122422cd2f8U,
  0xeb06ec05dc33cb13U, 0x1bdcfbe926ddf0edU, 0x8112e20ef8f903f6U, 0xd12cec3630d3bfcfU,
  0x2be8b542c54afe0eU, 0x20e5340cbe30b4ddU, 0x26d724062bf5dfffU, 0x12aceabca9dd09a4U,
  0x4f8d126e41a07eaU, 0xae8e0fc08081a3aU, 0xf014fe260c0a1d1bU, 0x3f10c46e8f72b32U,
  0xbed7f7f1d3b42be7U, 0xfec2d3b5c4072a1fU, 0xf8e5d507fd09d3b8U, 0x4427bef22b34095cU,
  0x82007191a0017c6U, 0x2b07f6f5ddedc5U, 0xe1ce640500c103d6U, 0xc5ffecf80981e8efU,
  0x1864ca54080910e0U, 0x23d2af1f6c6cc4dU, 0x17330c0531baf2f9U, 0xfd20caf00edf360aU,
  0xafd7f9bcebf45c14U, 0x78106e0b90717b5U, 0x1ebe344441fd9bdU, 0xae09452b08a0fc27U,
  0xc459271ffdab9e1aU, 0x23cffb0bef290a37U, 0xd4b0334a0933fac2U, 0x2610df2b1b250406U,
  0xf6dbb5cc42c90738U, 0x2904efe72c166b40U, 0xc9c72cd711eb98d6U, 0x41dbddf0d5c30007U,
  0xb906e024ce1ffe3aU, 0x52135297f50334cU, 0x2134c7bec30b2707U, 0xf1d1e5f1fa0b161eU,
  0xd1ccc4f910facd43U, 0xd1951953cde7d8b9U, 0x100521130814b213U, 0xe467d6dbe6163ac8U,
  0xbdfd31d4f209dfe7U, 0x21bb642e46256423U, 0xd0edcb60e929c8d2U, 0x32f42602f403e450U,
  0x1e2bd51712214fe7U, 0xeaf135e50723efabU, 0x4beaadd4140f18c0U, 0x707e8ecbc48d1cdU,
  0xcdee2cffac0ce0d8U, 0xe21e1531e62e3ffcU, 0xf221fe601df002e5U, 0x9a65113fd1fe3562U,
  0x5c150bfcd9f61701U, 0x42ccd20d27f7d594U, 0x2d86f92ce86ec9d8U, 0xba3b081706e6b440U,
  0xe4aed72a32d92ad7U, 0x36faffbf4605ec81U, 0x112f4a2d25dfd5cdU, 0x404b80148b517ddU,
  0xc70e14496e4a06ffU, 0xe711e7074c6feb34U, 0xc23711f9072f400cU, 0xe11521eb2fd62f42U,
  0x1a3927c5c048f71aU, 0xeff6040bbbfafc07U, 0xc62f290ce8c5e82bU, 0x5f30e122a630d27U,
  0xd912011aae1041bbU, 0x2e50ea2914e7ed1dU, 0xf09601eae019ff0aU, 0x7fed4a3bd324f3eaU,
  0x33272406a0d81b17U, 0x29e6031a382a3d3bU, 0xcd0610473f110121U, 0xcbc9b8c66a02bbecU,
  0xf12b130a3c33c919U, 0xe304a13a0bbce6f7U, 0xf62df3dc2cc7cdddU, 0xfbaf4dac6040bd1U,
  0xd7c010d27fd4fff6U, 0xf3e346b3c715e102U, 0xd1f611dbfdca2619U, 0x7bf53b0d1c61cf21U,
  0xc204f41eed03b4c6U, 0xd933f406fa6b6406U, 0xd7ee1104f91bba20U, 0x6e1fe2c4a030bfbU,
  0x1a34f4d7e830efdaU, 0x49fff93817fb50b6U, 0xf717f93901f9fe18U, 0x3b3bec32fbe4fefcU,
  0x7f14053e38d6d70fU, 0x46a3ee2fb5d721d4U, 0xdbeced1b15e23525U, 0x1b44132509e506f3U,
  0xe1544ce9c53b0743U, 0x12424cd170f2407U, 0xfadcc8fb0b04bffdU, 0xf0c545fea8f71b11U,
  0xd602e6d32aea0617U, 0x1517b0e2c8f8dc38U, 0x1ed033ffc805f7faU, 0xce09fa37edce06f2U,
  0xf8453fdaadd3d224U, 0x2ed5371a271e2333U, 0xfdae9740e08094bU, 0xe3501e5c503f02eU,
  0xa0a05f6f32126e5U, 0xe6c62d06031bdaccU, 0x19f630eedecef4e9U, 0x14e5ff4af731ee1bU,
  0x13f9f06004fcd876U, 0x1501c12009f000f1U, 0xe3ce16f8e8140b37U, 0xe50645f72b501cfdU,
  0x221444fc297f04acU, 0xdf1a271b2013160dU, 0x9cd5e50d274220ddU, 0xf9db20201fdb052eU,
  0x2b010d13fbf7dc42U, 0x23ebfef21fbff00dU, 0xd5efe4000100d360U, 0xf4dff5ca3c1bd1f9U,
  0x403454bd088952cdU, 0xd42b2d94c87a1a23U, 0x64b3814af6313617U, 0x1ed45b9a91ae6fdU,
  0xe009bc3712f54ad6U, 0x8eff22ef9cd0250U, 0x13034b581e323501U, 0xeb1fddf2fd09c335U,
  0xec3dbadcfff5174eU, 0x29bde8dc324027d4U, 0xc600f7eb134e2698U, 0xd913db112552a41cU,
  0xd4f900e4e02ed6e7U, 0xd21006f51bbbf317U, 0xf0363d255dff1235U, 0xddffcd0fdd1761ccU,
  0xe6d306c6dac40fedU, 0xc811c526cff4402eU, 0x55ea4a1c23d03b20U, 0xf4e90e0bd80c1735U,
  0x20d8f1fed12d401aU, 0xdefc01f97ffd10beU, 0xf8b4f13df6f57518U, 0xfa2c33e7e14c30eaU,
  0x36b81720ec03f8faU, 0xfaf3f1a84a2114efU, 0x1e0cd9f7f931002eU, 0xd077f1c51fd522bU,
  0xeb31e8f51b3e273fU, 0xe21503183dd0106eU, 0x4b463d8a56a499b3U, 0xb3364705e9fd14e1U,
  0x1f09c3c326fb92cfU, 0x8ebabd40ce0e023U, 0xa73497dd5ae414d7U, 0x3c6294d60f4511ecU,
  0x37259c4124cccea3U, 0x219f54b7371358f0U, 0xf20ccf32b9a3d0f3U, 0x81e1f345b90df2b4U,
  0xa6d0d80f8ac421f8U, 0x35cec6e51af0fdd5U, 0xffffffa5ca4eccccU, 0x1df00000a04U,
  0x16b2ffffff04U, 0xffffe7a000000aedU, 0xfffff89200000ffeU, 0xbe7000007a0U,
  0xffffff75fffff471U, 0x8df00001bf9U, 0x4ddffffde67U, 0xfffff33dffffe671U,
  0xfffff1d2fffffce2U, 0xffffe6cdfffffd25U, 0xdacc6424000011d3U, 0xa7215949a5d323e4U,
  0x3e3b00d4a5097f20U, 0xebefeaa5c3fade24U, 0x30ff432f57faec6U, 0x5d573e25d103d8f6U,
  0x4be0e9e04442d1d9U, 0x13c1755917dc36f2U, 0xc2bc126205328142U, 0xa30b0e5a05095015U,
  0xb439f82c7510e3e9U, 0xf81c81e9ad26ba11U, 0xb93e3d7ff62d1bc6U, 0xe0da0001491c29dfU,
  0xb115f1d020002dffU, 0xebebcce8e86046c4U, 0x56c21ab7021adb1cU, 0xc6ea514f1195622cU,
  0xd43ee268bf7fe113U, 0x170c061315dc179bU, 0xe7e6a3d9c212fed8U, 0x45f443afbe547ffdU,
  0xd4eb3ab3d5579400U, 0xcd056ee94e7fe996U, 0x239611094fefc700U, 0x5af97f4317e6cbdaU,
  0x19faf0970dfb23a8U, 0x7810d2e4fcfb2d7U, 0x281d30fc1ae9d1b8U, 0xb9d6fceb1de1cecdU,
  0xbeb20962cf7d302U, 0xf2612a061bf8f122U, 0x81f60bd00cdae5f9U, 0xe5efd5152eeac9eeU,
  0xe25b7f251c46c008U, 0x3228ecf5000df9f3U, 0xfce7f736b3e4cc1eU, 0xf2ff23e8ede80ffdU,
  0x40d81ebcfdedc0cU, 0xe3c27fccef2046c5U, 0xe8384af68a25c71bU, 0xe237542d1b60ee50U,
  0x5ed12c6c0b3c246U, 0x19e7cdfd1a05e023U, 0xc2df7fd5445e13f8U, 0xc85713aa1bc006e4U,
  0x1d949020318b729U, 0x7f19101d238f26acU, 0x25232cd1f0f8da67U, 0xe1251bd01024effeU,
  0xef464a011ff63416U, 0x33b65ccd00f08149U, 0x287f53dfdcdb390cU, 0xbcbe34df1f17a708U,
  0x1550de1be3e7fbfeU, 0x9dee8fe52443740U, 0x481b23d1777f303eU, 0xede081556b22f7c8U,
  0x16dbe7f2cf420ffeU, 0x952bc402532ef3a6U, 0x1aeab381d34b63cbU, 0x2dc70be169feaf33U,
  0x17e9654a0eeede1dU, 0x2bf1ede0de140d2dU, 0xd37f07d20924f861U, 0x23ef0814d20dea3eU,
  0x1ec4eb312704310cU, 0xc2e25715c0e61d1dU, 0xec4e59a8187ec22U, 0x21a9ac12a07fe10U,
  0x3e81d6a8eea5fad5U, 0x13e8eaeb401d05d3U, 0x1210f79dcb606cd4U, 0x5bf319201c040cf5U,
  0xa6f703942b32ee21U, 0x114a81432cf681daU, 0xfe1324b895e2e900U, 0xbea6d0142010f8b7U,
  0x1301df28e322dc30U, 0x29a721cdbee7aae8U, 0xd9e242e850e64b81U, 0x3124e1b53225ee0dU,
  0x7db5d891300c1e4eU, 0x342589e14e1eb11U, 0xce08e63c7fc195bfU, 0x4343dac4e681dd16U,
  0x49aaa909d6200e13U, 0xffe5b7324724e0a5U, 0xb2db57e5fdf8fd0dU, 0x4c90c72fd892f132U,
  0x152150e27f0e5585U, 0xf341e836e2101406U, 0x90eb7fece35911dfU, 0xae811f224efce2d4U,
  0x1a307a23d91c46f6U, 0x4fd0c8e1d819dd1aU, 0xbd2ae9f4eea4cbfaU, 0x5da3263826d124e4U,
  0xfce0f07f044b9bffU, 0x93e43d751d5b6fbdU, 0xc6f6469be81c0cd7U, 0x2bab1842189343bfU,
  0x620e812e85117fdfU, 0xeaf001dce5e90e41U, 0x1eef022a22f9c3e5U, 0xa9039236494009e6U,
  0xd2b307d6c3cfcae9U, 0x7ffefbd9300810acU, 0xf4027ff6f2c7480dU, 0xfdf518181de4f6e7U,
  0xb0e4c0936047c00U, 0xfad5d40fdccbebf7U, 0xbdefd7b6cdec24efU, 0xb2e9b91c0bfef832U,
  0xc7d7b7fa051c7f4dU, 0xcdbb01dacc081136U, 0xfba1e8fb785e4881U, 0xf2c5db1cc4082d10U,
  0x2538d707f5170b05U, 0xad11e3e023cc0fb0U, 0x1bd896e0f27f05e4U, 0xfc0a2a07c7d9b175U,
  0x7bf4d7fe21afcb6U, 0xb5a905eef30d68dbU, 0x841c6895b846efe9U, 0xfa402c01d27f531eU,
  0x19e6abe1b04b1606U, 0xf8155a81a91cfc24U, 0x2ededb45f2c219f2U, 0x1c227a102b17f00cU,
  0xede462397f2a12caU, 0xe163cc0fee3caf31U, 0x4994f9f3103b451cU, 0x36f17b1beec1e648U,
  0xc0e87f12151e382fU, 0x48ce50bb1851e174U, 0x16f26336a1f71b36U, 0x2a2f57dd027fd440U,
  0x408ccb09f52a0a4bU, 0xf87f6adba7ecdb1fU, 0xf032b9451cdd9419U, 0x3befceffc7cf37c9U,
  0x104567f2123fddcU, 0x2b5dfa6cc2e9eb78U, 0x9c207f15ecc71719U, 0xf3da307c3e770292U,
  0x2ae328ee0d20cd03U, 0xe80d2efe0a110baeU, 0xf137b6fd55ed26f6U, 0xf3b9f22a2c2f26e3U,
  0xd1a3693d147f2ab3U, 0x2f7f4601e6f2f42fU, 0x395be722d7fa2639U, 0x39e236ce10caf728U,
  0x3518814327a2bfdbU, 0xecda5429fefdce81U, 0xeaeabef553c1280bU, 0x1ae08400e6df4c28U,
  0x9bac0d197f2f23d7U, 0xb2afd0801004b01U, 0x44c9307fbdcfec39U, 0x22f607756629b9dfU,
  0x197f03eeebd8f811U, 0xc81c00fe60ee552bU, 0xea1909d60811e919U, 0x5fdd3acc07fe022fU,
  0xfaf1ab5cc9fb09a9U, 0xe27f49e93ed9a087U, 0x32c8bcfcab0bfde6U, 0x7f9ef5f0311941d2U,
  0xebfed622e3229cafU, 0x3f8138face5039ecU, 0x63363e060137ef2dU, 0xf0feecece23b1712U,
  0x420004d118fd0cb3U, 0xb51e7f162d4fa7beU, 0x7ff2924ddf2274aU, 0xe56f3608c60dfbf2U,
  0xdcfaadfb7ff05071U, 0xf930e7e711514ea9U, 0x1cede7d32fe21c07U, 0xaf697f2ad26e19e4U,
  0xfc97ba61e9b6be53U, 0xf4937fdfdd03f9bdU, 0xe60e0827ef53adcbU, 0x33e640fae4355439U,
  0xe22c3512f89afe06U, 0x1481de2102060ee2U, 0x6bfa1e0801e8e621U, 0x4d93f300bd3ff2cU,
  0xba3d0a75dec1088U, 0x4beab1c0a429fd53U, 0x5ee5d4ca7f0c09efU, 0xc1dbed0193f261eeU,
  0xd6f14ddfe9b405f1U, 0x2234cf38128127ddU, 0x1dd908d3433cfc56U, 0x21f6fa141b7f2838U,
  0x61139fc021e4fa8cU, 0xe7b1acedf6f027fbU, 0xfc5f90081f4c9c0U, 0x1f873fa31ffd0b04U,
  0x3a426948bd814719U, 0xc3032bd16c560bbbU, 0x2e10a2e3cbbb13ecU, 0x65c1a804d8c40cebU,
  0xe4367f33133bbd02U, 0x23e6d510cf0ccd84U, 0xfbe504647f2b1c0eU, 0x70b5b73b27df25c5U,
  0xbffd559ecabafbd2U, 0x80b3a32f50129daU, 0xb6004ee0167f3e06U, 0xcd033f5b0debd036U,
  0x76fe3981fa41ee27U, 0xb938100efcf801ffU, 0x1bf8ceeae812dfc8U, 0xefcd81e6ddf9300fU,
  0x2eb1fecd331e49e1U, 0xe72de4202bf61fe6U, 0xaa7b9f0f11e08e2U, 0xf0b15df2a1681c3U,
  0xc91f21d4dee1f00cU, 0xeb3e3fb53e46be48U, 0x81893e30533d2f8fU, 0xd3d9f244681ea5a2U,
  0xaac06f849a87f20U, 0xd6d7e3a0d8185f46U, 0x90089efcee0b07e9U, 0x267163e2385897beU,
  0xd57fd0a7f5c1ae22U, 0x1f179bfd8ebbcb3fU, 0x34debfe1d3f4f134U, 0xbbd0eed619ebe8b6U,
  0x4d11c1df02e2281U, 0xb395e8204d8164edU, 0xe9549d8b1c1dde32U, 0xe500eec540ee6c05U,
  0xf31e1bf64c90a106U, 0xedaef218107fb9e1U, 0xefcc02f12c537bd3U, 0xda197f0a04b1054eU,
  0x3304e445551af1a0U, 0x2559ed098e92f25U, 0x27cae7ab177ffb0fU, 0x1dfb195907a1f8d3U,
  0x4dbea8ea3dea98fcU, 0x1af07fb20c4a9cfdU, 0xb3d2fa4ef7acc10dU, 0xcc81bbaef4562219U,
  0x1409fb1eaf9110f4U, 0xefba1d353ec3c538U, 0x21118751fcd2d1bU, 0x17980b0729f9e481U,
  0xffc1dd02d6c00bddU, 0x6893f5ca5ed22100U, 0x6f5130f01b64ab0U, 0xc1ea3b27b4a50ed1U,
  0xf45ba601f681aa37U, 0xf2bf951fcef97f4bU, 0x2152deb2d10edc0U, 0x30ab32273eccedd8U,
  0xea3e5422d01ac2efU, 0x230628810f26d554U, 0xdd1dbb7f4bd7d9d5U, 0xcbe75effb910ebd1U,
  0x12cf161a36b350dfU, 0xf3eacf94032f151eU, 0xdc212bd7d592bc64U, 0x4bd50e22067f81e7U,
  0x1b3da15bedff3252U, 0x4bb86681dff02e7eU, 0x2bf019221cc939f8U, 0xf8ed359a3b15692aU,
  0x3c3418e6ed780c1eU, 0x811a54bb6535da13U, 0x14decad825f6163fU, 0x385ce3ffcddb0fd6U,
  0xfe07e2ffe0aa8133U, 0x1b007f88123b0b05U, 0x9616c46451081f22U, 0x3f24cfd020f7bb15U,
  0x6ab988150ac5127U, 0x440e563adb253a10U, 0x60643e3e1cd0b3eU, 0xbd1323da8a3ae32dU,
  0xe7d321ee3b120a22U, 0x5af5ec1b14db7ffeU, 0xf13714161906f42cU, 0xc01101124f23faf5U,
  0x2e7f0c4fcecc52e9U, 0xff1a2c0002389e26U, 0x4107dd702816d144U, 0x171d7fac0a71c3b6U,
  0x3ede06ccaf5bfc30U, 0xa43964254d45d4ddU, 0x28ff2521191aec7fU, 0x7f2c14e014e54907U,
  0x7bfac93e3b4657deU, 0xa125dbb30024a704U, 0xe42a32ae1ae2ddedU, 0xe9290ad47f1f370dU,
  0xca3ae011ac1a3332U, 0xf51ac8e1abc6df35U, 0x51feedcf02d1eabbU, 0xda81b73fae90d2ecU,
  0x414e440ec2449eeU, 0x1507f5f8d11ff0f9U, 0xe512f22e29d115c2U, 0xc20137f0ec7fe6dbU,
  0x1f81aa214b14ef21U, 0x34241ed2422af5e1U, 0x81ff23ca00f912e3U, 0xeb1025e6ddbfb135U,
  0x321c15eb67283803U, 0x19132d3bd3f1b108U, 0x17df8b9fe3118d23U, 0xdf9ad032925c081U,
  0x9c5b9d9d4dd1fecU, 0xfa1919fa81bbd1f7U, 0x2bd3012f3a50dec4U, 0x111281d2cc1b281aU,
  0x40be9cdee837e443U, 0xaee838250beb1ab5U, 0x121e37fd4da5dfffU, 0xe821ddd3f4d7a4edU,
  0x377f5238c7f4d542U, 0xc281781f20eef73bU, 0x4dfdee19dfebabc0U, 0xa4d82db5162fe2e5U,
  0xdd20f5eaeb0f29b1U, 0xc7e386c9c9233f02U, 0xa8b50a8189c23516U, 0xc5e6d5e41ef64163U,
  0xe9027fb7ba0b2cf7U, 0x3a9ab82e20d85628U, 0xd33319f1e9c0dbd4U, 0xca947fdbc4bfbf1dU,
  0x3bd84ca600c4aaedU, 0x80efc7b63ccd918U, 0x27e7e0c410affdccU, 0xe31d619e009b57fU,
  0x6d4cd0ef05326402U, 0x164153031b4efea2U, 0x5b8a0636c181e95dU, 0x39228189cbeac314U,
  0x3240a9d1ce76d33U, 0xdbe8f6f4f4141448U, 0x471dbeecc1c1eb1dU, 0x3102eb44311f0100U,
  0x51eb14252607d881U, 0xf9e36ef7dfbac0bbU, 0xad1a25cb5dd2e3bbU, 0xdbf38105025afd60U,
  0x205c9c333dd08baU, 0x1381fb0119ff0545U, 0x6b12e1f4d16c8ebU, 0x1e0816eb3af230deU,
  0x171b7f065d46c2ccU, 0xc462caf1eb13b212U, 0xfffffe0d0ce4fdf3U, 0xfffffe0afffff1c1U,
  0xffffffd1fffffd91U, 0x6df00000132U, 0xfffff82d00000427U, 0x39e0000023cU,
  0xffffffbbffffff8bU, 0xffffffcafffff2d3U, 0xffffff140000010fU, 0xffffffd8fffffb10U,
  0xfffff71dfffffff5U, 0xfffffd840000009dU, 0xfffffad8fffffe98U, 0xfffffdc9fffffd8aU,
  0x107ffffff1aU, 0x2d8ffffebebU, 0xfffff61bfffff7feU, 0xfffff2b900000531U,
  0xfffffb43fffff802U, 0x3f0fffff6cfU, 0x82dfffffeadU, 0xffffff47ffffe303U,
  0xffffff7f00000321U, 0x369fffffe41U, 0x3e400000002U, 0xffffffd1000001ebU,
  0x302fffffe4fU, 0xfffffe0600000306U, 0x32bffffffe2U, 0xfffffa1f00000418U,
  0xfffff2cefffffc86U, 0xfffffffffffffc34U, 0x3cfffffc7cU, 0xfffff68cffffff99U,
  0xfffffc42ffffffeeU, 0xfffffa07fffff1faU, 0x1d9000007e7U, 0x10dffffffdbU,
  0xfffff98bfffffdc2U, 0x2fa000001e5U, 0xfffff828ffffff90U, 0xfffffd42ffffffe8U,
  0xfffffe5bfffff7c3U, 0xffffff61000000cdU, 0xfffffb4bffffee36U, 0xfffffec9fffffca0U,
  0xfffff717ffffffa6U, 0xfffffcc6000003a3U, 0x8dfffffedfU, 0xfffffeaefffff8afU,
  0xffffff1a000003a8U, 0x2bfffff9e6U, 0xfffffc7f0000010aU, 0xfffff1370000010eU,
  0xfffffc2efffffb04U, 0xfffffedc00000325U, 0xfffffecb00000437U, 0xfffff98b0000039aU,
  0xfffff9effffffbd0U, 0xffffff4800000495U, 0xf3e308f2000002f0U, 0x3ff0f97fbd14710U,
  0xbc05f1131bfb50f2U, 0xfe04e1e30a0b04e4U, 0xd1f609fce7f265d9U, 0xa221dfa0f002df8U,
  0x9bdcff0117f49eebU, 0xae02edf805e02321U, 0xf5d6818fbb2bf42fU, 0xf7eee80b180003f5U,
  0x6fc98190174330cU, 0x1401eaf61cd6dcdfU, 0xf4cb260014e42cdbU, 0x1cef0206d3a0000dU,
  0x29ebf6f693ff05c8U, 0xead8f9f9f0f9e5ceU, 0xa080b9af3c645e6U, 0xa0f0ee0dfe16b1ffU,
  0xfac8f6de090cf5f1U, 0xc0f9edfdfb027d56U, 0xed39f9e92df255fcU, 0xa3eff201c3e1b4f5U,
  0xeb0707f4d5ea0013U, 0xebe6a0a6b90dc6feU, 0x2f3dc39dff8f600U, 0x24fab3b42e4bfde1U,
  0xeafdf4da0205faa4U, 0xe3c31fdf16e21cb4U, 0x30f7f5dae1c5071dU, 0x2a0efbf086ef1fb7U,
  0xc1b100e00502d3e5U, 0xf419fd94c7bd25cdU, 0xbfe7f71bf03fc805U, 0xf3b701feff1ef4f1U,
  0xe5e7f31910f77f7fU, 0xc67f1de4350b7f0bU, 0xe1e9fefca8cd9df5U, 0xe8eeecf2a408cb9aU,
  0xeffabca9811c81faU, 0x36ffdf58c100ece7U, 0xfbfd99d353f9c809U, 0xcdf40ae0aefbd981U,
  0xfbbd19a339dc11edU, 0x44ea01ebb0a9f7e7U, 0x1afebfeca5e92e13U, 0xf5c5180bebec81f3U,
  0xd90c008ce9e71ff6U, 0xb6e70d08ee27c8ccU, 0xffe724cd3a191cd7U, 0xe8e2e80b0cff674fU,
  0xe82f15e70a054ff5U, 0xcffcce00dbbcb8f1U, 0xdaeffaf7d805d6f0U, 0xf2efa090f709af03U,
  0xf8e4e242bbf8f5f2U, 0x5f4c5e72cd003d8U, 0xc2f00eefa31df2a0U, 0xe2e21dd31db21acaU,
  0x21d81ce8d38c01c0U, 0x2908c102a9f02563U, 0xefadf7f8ff02ccf3U, 0x140508acefc534e4U,
  0xa1fd1a110920f1d5U, 0xfce025f41f1d07e4U, 0x14ee011319f84420U, 0xfceae3020af10cfcU,
  0xb208dc061fe3a4f8U, 0xdd07f2f5f2dffdf4U, 0xeb059c8ff322f32fU, 0xddf7071907ee02f9U,
  0xe619a80712b621ceU, 0xb1010307c9eef2b8U, 0xe6ee152f27d40bfaU, 0x2fffcd0708b002d3U,
  0x24fcfeefcdf6092cU, 0xf605ffe303f0e6caU, 0xd003f1e3fddd23f1U, 0xcef230110e125fc4U,
  0xe2d7d8e10504d8eaU, 0xe403eefaef1d2f2bU, 0xea0c2de0fd17350cU, 0xcb05fdfff1fb10fcU,
  0xeaec0002e7effbe0U, 0xefd7d7b8ae06fe40U, 0xdc04a524ead6fafdU, 0xeb06ae39383d02c9U,
  0x3df5ff091cd4a6f3U, 0xffcc24e344d6f3ecU, 0x2430322406c30d10U, 0xff8f1e597fa0dd2U,
  0xbd0a1ef30c05e1f1U, 0xf306f71fd7d518e9U, 0xee05f7f0e228e9e9U, 0xfc05e1d8d60cad46U,
  0xff1bcc09200ff525U, 0xe250311212eff8f6U, 0xd2361f04d608be19U, 0xc022da0e900bc9ffU,
  0x13f009e8e4ccd2e0U, 0x19e992ffc1d2fb09U, 0xa38c7b17f74b7eeU, 0x3cf52b453ddfe8bfU,
  0xbeb333e234c8d2b9U, 0x5dc93bb3def91042U, 0x3f2cca39bdee02bbU, 0x87ec46f7f6e7e6ffU,
  0x2100fbd420f048f7U, 0xf01d32dcd34eb930U, 0x5025f51dc13a8941U, 0x5028116d4adaf6d3U,
  0xda404a6efbb3e6bfU, 0x814a30e6ed6d8127U, 0x817f81149812c691U, 0x1e26ec10e9a9ecc5U,
  0x7fb1c6b7dcbe0a02U, 0xc87ff77f771fe27fU, 0x6157f4136bb13dcU, 0xa88a78db3ee1bd27U,
  0x7ffd7f81d23c1501U, 0x7b45d87f9ef3f50fU, 0x97e136f4f399ef0cU, 0xd0f0fcccf3ff18f9U,
  0xd4f5ebf0f03ae8d5U, 0x23002d2e060feef1U, 0x440cf615fdd9d4f2U, 0xf606362b07edeae9U,
  0x983102fde916e714U, 0xad2cd8fd870ce5daU, 0x1e07f3bbfce0c4f3U, 0x37ead2f581f2040bU,
  0xd85ad4231fc9c10dU, 0xb0fe1d25abe10bd7U, 0xc7df7fbc1cdbe1eeU, 0x41af4fdbdb0515feU,
  0x4f16e12081e61376U, 0xc0defdf4f4e5dee9U, 0xf4fbf4ebe5d219e6U, 0x81ee4d0f271c03d3U,
  0xf6be671e05ebede4U, 0x29e9e6fe01ea0d03U, 0xf90dee0ef414f6U, 0xae1ce3fff8f81ff8U,
  0xe61a01f9c7e8cfe3U, 0x2d3e981edff0421U, 0xd606cf0aaa01f8feU, 0xce0ec2222c941f1dU,
  0xba081800a9e3ddf3U, 0x7c743df5cd0ec2dU, 0x42000c0114c30b05U, 0xe9ee0bf0b6ea0917U,
  0xf201119f10f998cdU, 0xe507dc10d6e16b94U, 0xbedf0f2526177fb5U, 0xe3c6b0e7f109f80dU,
  0xbf05ccf305271022U, 0xdef808d5dc18610bU, 0xbe08a7ffe5f752e9U, 0xd4e30bfdf6d1e78bU,
  0xf0a2baa39d0de253U, 0xba028e3e5fcf1U, 0xdf03bcd84f31b9c0U, 0x7febf7ea11abaefcU,
  0xf71634c1330ce018U, 0xd520e09bcb6061bU, 0xf3f398d7b51615c3U, 0x292f34d8eb07c1f9U,
  0x808075abd097598U, 0xc50ef4e0d8eb3eb8U, 0x111be5e0ab609d76U, 0xfa2cea116ceac0e1U,
  0x1c2d531bcee404c3U, 0xd12bf0f721be0207U, 0xb911fa30d3f38ac9U, 0x2d08bd1599c8e1d5U,
  0x1ce281dcace81e2dU, 0xd95ceb9b1052a519U, 0x58020b4c57b1c7dbU, 0x8da40d0051439808U,
  0x3af904b1c4e32f7fU, 0xec30ae2eb404dad3U, 0x1b7f7ffbe7140118U, 0x7f017f0f7f637fbaU,
  0xbf7f368181810681U, 0x7f7f2eebf77f927fU, 0x6b7f7f7f7f81cc97U, 0x7f237f7f8181fa81U,
  0xf77f7f817f7fcc7fU, 0xbaf7cf7fbcf0ad0aU, 0x7f49a941f98109c4U, 0x3081ddb90ce27f7fU,
  0xac572b43c2203342U, 0xc87f067f11f28104U, 0xa981087f4b7f8169U, 0x357fb791d4567ffaU,
  0x7f7f047a8ef9813dU, 0xf94236f67fe65b69U, 0xf0d62422e21917b7U, 0x8816e7e3a0f301afU,
  0x3e103c6f8157d91fU, 0x7f2318041acee6b5U, 0x38294c16c0ecfcd7U, 0xe5fa1af01bf60300U,
  0xbbe3040e8df990b4U, 0x29fec61607d295e9U, 0x12e4c19c98f91821U, 0xaf77edca02a896a9U,
  0xaf100547d0c4d307U, 0x81e25f314e5ebd15U, 0x37f227cbce002d3eU, 0x401e8429b8fce17fU,
  0x6f5fdfff6062837U, 0xfc08ec31def51cb7U, 0x9ce81421241320b7U, 0xe8ba7f7fe6f1cc14U,
  0x47e1d8081dddfbfeU, 0xf00b3ee1f2012de4U, 0x8c28b400eceb05e6U, 0x8ed718f2d0deb881U,
  0xe381ab91b8fbe022U, 0xe907d6149df702f9U, 0xb7f381ce4181d300U, 0xaef40700a1b9d61dU,
  0xe20741ea431add1aU, 0x4402dfad2a90844U, 0xf4eeb1e5aaf70f0fU, 0xcfd747bdf6ddc1f6U,
  0xf3d5e4130aef47b4U, 0xedeb41220f1c23dbU, 0xf6b99ccef1ebd406U, 0xc105e5f2f5230b02U,
  0xdc07fbfad20813f9U, 0xdf1cc708eefc4ff7U, 0xcbef0ef6f9c51fa6U, 0xffa2c8c4cafd262dU,
  0xe7f1df0800eef5f3U, 0x9ee2afe2342bcd14U, 0x7f00fae43de0b8d3U, 0xf52705cff916f8cfU,
  0x1c4f0d43d4a6f018U, 0xe7ffeef6a4391997U, 0x171c33defa0cfdf4U, 0xe6ad012ec71a0eebU,
  0xeef9b910eac1dce1U, 0x900c5cdc327a802U, 0xd211fdfa47d3e1d9U, 0xfe1d12d5e9ff07e8U,
  0xc30f160214c5330dU, 0xc500150412e3d1c0U, 0x1f7ed05d0fddb42U, 0x200b4cab722fe06U,
  0x8c18cef8f840aaf9U, 0x58fcfbf37fd1e5fdU, 0xb1d2f71c4d32b44cU, 0x1758d83e96ca1a40U,
  0xf016a404944be8e5U, 0x7f5051c5f449f13bU, 0x1bae217f107f05ecU, 0xfa26c9bb9589bfbaU,
  0xd2efce2de6e8120U, 0x1044e1a61c3e6abU, 0x2c1f39e7a9072bcfU, 0xdf256fea5fc62230U,
  0x9bc5fb15a8dc8ae9U, 0x112af222c4efc011U, 0xf8d4d48d1c3e1a14U, 0xd52c28dcd002e003U,
  0xca07e4027bbc9c16U, 0x82b0f1777f618a75U, 0xcc68a33b811c55edU, 0xfa62c125c74aae39U,
  0x26533bc10a7fd87fU, 0xd7810314d741ffbfU, 0xdf1be5e7bfcdd5c5U, 0x9fb2c108939c715U,
  0x2213f1ed30cdffc2U, 0x92321e1c0102af3U, 0xd820410320bc1806U, 0x8cedff00b6cb81c9U,
  0xf403f918d5f6932bU, 0xe6f1c681d8420304U, 0xda3509fcf9c581c8U, 0xa9f902dfd4c4c101U,
  0x8df2140f4c5aed56U, 0xf4540d27a4fb1412U, 0xf0039614f53aee56U, 0x2c064102e83bd22bU,
  0xabdeededeed27b0U, 0xc1f87f170a142fdaU, 0xfabc3e36d4e0e30fU, 0x2bec04f21fbafaf8U,
  0xf61032dec90c24f9U, 0xd52606f7f3f44bfeU, 0x98fd00efccbce9adU, 0xfbe4cddfc9ff03f3U,
  0xcdfee5f6c421fff0U, 0xd0fcc61f0693d4fdU, 0xb702f7d6a2eab8d3U, 0xe82ef8e9283701c7U,
  0x265e640fa81093eU, 0x209c8f8d3030cecU, 0x31de46d90ff7cbfbU, 0xee0eed13ffe368d0U,
  0xa5de37e9eefc15f6U, 0xeacab2d3e305fb05U, 0xc50902f5fb36dd18U, 0xfe192cf3b7fbe40bU,
  0xde08b1fff0f57bf1U, 0xf01913f8f5ec37e0U, 0xfcaadcc4edf62200U, 0xd7ffe009e616f401U,
  0xedd8b2201e1cfdc4U, 0x7100f1d610f4a7d6U, 0x1f30ef12fb39f4d4U, 0x2738f126baafe513U,
  0xf5f2f8d2c3e5f98fU, 0x7a0a3cc8f711cae7U, 0xf4e6fa18ebf413aaU, 0xcd034020eac9e40dU,
  0xf5d9b0f08f19bf0dU, 0xcef001ed10f6d8f9U, 0x11919e0e102f5f8U, 0xfef807fa0cf92df7U,
  0xf7f314fff2ba10f8U, 0xfd92dcce04e3e77aU, 0xcbffd6f1a833f505U, 0x81d8e3f6ff4a9d17U,
  0x6e00e8bff1b1ddd5U, 0x1319f9270f350764U, 0x2257c01a039d20fdU, 0xfaf7cddaed33c307U,
  0x581d4f810507eaefU, 0x1dbe748bf1ef081U, 0x13fd0d22e6c5d103U, 0xfdbaed07dd22a10bU,
  0xe8dff8e411fce4e1U, 0xf32201bfde1438ffU, 0xe7fbf9001e167501U, 0xe6ca07f8819810faU,
  0xf4d5c0e6e6dbf37fU, 0xe204eac2ff7ff700U, 0xb10719b4d0199e25U, 0xfecf1af2e81a7c3U,
  0xf102f31c425deb7fU, 0xc668b955f7f208f6U, 0x62081cad77fce30U, 0x551625d8e95f91f9U,
  0x7d9fb31d71f038fU, 0xdafe46e899e0d8e3U, 0xfce3ffffaa11de00U, 0x10ebebe80eeaeccdU,
  0x619f0d6db0b26f3U, 0xf20f180013004501U, 0xdade08f78f81de05U, 0x2b50303ece9da6aU,
  0xe5fac8b8d849fff2U, 0xa7f8d941df02dafbU, 0xbbfdf6c9ed94cbc1U, 0xe42ef11f227a100eU,
  0xfa73e84bfaf90e0eU, 0xf7f1b0df0c4dd725U, 0x300a29fc081cf3e4U, 0xa09ef3ef7f154ceU,
  0xafff7607eb11d0f0U, 0xf8ee1810a2100f03U, 0xbf120e4ebfbeceaU, 0x71519ddcb050b00U,
  0xf10a0afc0af05807U, 0xbffd18fc03bfe2d2U, 0x7bdb8c6d8fd0d41U, 0xe3feed08db27f1faU,
  0xb902f31ce5e5edf5U, 0xb300eff6dbaabebeU, 0x1f30ebfe3a58f9b3U, 0x4309ef09e2a3001fU,
  0xef08e3d8f2fbf7e0U, 0x320f07fadefcU, 0xfffff567fffff6e3U, 0x586ffffff116U,
  0x2d1ffffa5b6U, 0xfffffbca000017caU, 0x16caffffff61U, 0x4580ffffff6bU,
  0x68ffffffe34U, 0x7d00002520U, 0xfffffa1fffffeecdU, 0xfffff70100006a44U,
  0xffffd07a000049f0U, 0xfffff7b600002aa1U, 0x16d6fffff54aU, 0xfffffcc8fffff769U,
  0x1bf3fffffeacU, 0xfffff922ffffe86aU, 0xfffffe80fffffc05U, 0x1423fffff705U,
  0x1013fffff511U, 0xca2000021dfU, 0xffffd00ffffffc2cU, 0xfffff41dffffff0cU,
  0x8d6fffff9d3U, 0x1667fffff67cU, 0xffffd8c4fffff519U, 0x425b000048a2U,
  0x1c9a000024cfU, 0xfffff80000006295U, 0xfffffeb90000097cU, 0xfffff57b00003587U,
  0x370400002a26U, 0x3dd10000314cU, 0x1076000050c7U, 0xfffff934fffff7ceU,
  0xfffff624fffffe96U, 0xe2400004036U, 0x1f79000055d5U, 0xffffff5ffffffe24U,
  0xffffe3bc00003a12U, 0xfffffc6fffffd684U, 0xffffe18400004724U, 0x35e4000017f7U,
  0x4a1a00004df1U, 0xfffffc46fffffd28U, 0xfffffe3cfffffec1U, 0xfffff8aeffffeb13U,
  0xffffe0c5000033c8U, 0xfffff87dffffaa6aU, 0x277cffffe62dU, 0xffffda5400003cd8U,
  0x4364ffffed64U, 0xfffff87f00005247U, 0xfffff56dfffff5fcU, 0xffffe65dffffe104U,
  0xffffe69400001553U, 0xfffff55000006d9dU, 0xffffee8b0000467bU, 0xfffffb8cffffee54U,
  0xfffffa84000039c0U, 0x3400a02bffffff0dU, 0xd0c51625f40eef04U, 0x6051d05f80af9f2U,
  0x5307ef19fccf03d6U, 0x50190635cde10b10U, 0xd9dfab23fd1c1307U, 0xe881010ec4e6da17U,
  0xd3c4e121fbc8f0eaU, 0xcf400ed280514bfU, 0xe0ccfbc62b15143cU, 0xe2c0341d57fe11daU,
  0xbf7cb26a9d82421U, 0xc50839d3d4d4f5f3U, 0xd425e911d83223f6U, 0x27aa02ea30e811c3U,
  0x96f1a9f707202e00U, 0x2645c1814923a6a2U, 0xae0e9dfb0c2e3cdU, 0x2adbd31d46212023U,
  0xa1f9fb1d29d2e09dU, 0x8ac1c2fa1db11592U, 0xf9444c42e22137d5U, 0x8ea2d2bee82d36cbU,
  0xead20703b30621dcU, 0x41d80facde2883f8U, 0x130de2101bb633f6U, 0xe3294cc2b32cd344U,
  0x8a0eb3eb573a89b1U, 0xcfbecfbca6cb4dadU, 0xf3cfbfdd7dc92e0U, 0x37f8d4eca3f3bc8fU,
  0xe9ebeb42efe21747U, 0xf7f6cce108e40850U, 0x1006a2394be64a1fU, 0xf3cb14164d1ba958U,
  0xfad7eb0af10acf3fU, 0xed64361795e3080eU, 0xe7a2eefbc436f4f1U, 0xb75062015200ac8U,
  0xcc07fe12b5b5b73cU, 0xaf0460f52eccf221U, 0xf383e0eb15ed2e7fU, 0x3b1a52cc0723291cU,
  0x74613ca060e42baU, 0xf7db2523e2bee5ddU, 0xffe0c5fa0720620cU, 0x26f1fb06db16d6dbU,
  0x14330a132df3d4f0U, 0x9368134f51c02ceU, 0x7acc8091c0bd41fU, 0x35d4e4083149c91cU,
  0x2ae62aff27ec0fbeU, 0xe20bfd09dfebf61aU, 0xe11102341712172dU, 0x1b2de2242901140fU,
  0x1bac1dcf17154306U, 0x28cee392eded24f3U, 0xeeee2c0fe521d806U, 0xc3910e1bcd30b81cU,
  0x16440ed5340d1b00U, 0x7fd4bc1d1609f708U, 0x1fe69d0410484299U, 0xfb36c95a0ad905e6U,
  0x8dfa67afda13ba22U, 0xc40033ed14305d2U, 0x402fb212ea0bb3edU, 0x7ff949090bfd08e9U,
  0x9fdc3fff21fe480dU, 0xf8530f4823102a9cU, 0xeb96dc0529ca32c7U, 0x68f9cf043acd42efU,
  0x1e58331631167329U, 0x500c0df845d93b84U, 0x8cd1fff18d3e5e7U, 0x13d8fee72be440faU,
  0x2cf8130d0cd6d827U, 0x2c17112bf5e21a2eU, 0x6d3e9d05d826db30U, 0x410a3be218dab40aU,
  0xe86704c65b23f65aU, 0xc10fb31a30270216U, 0x1417ca190fd3a1ebU, 0xfbf0f6e046e4f063U,
  0xafb8152804d43929U, 0xc667f7f6de9f3925U, 0x2d11c21d37b217ffU, 0xcc350a14cadfd5e4U,
  0x421cd00547d2253fU, 0x7fac11fd4a0ffed6U, 0x33fa5cfcf03066ddU, 0x2d3a04d8cb373d2dU,
  0x4820e3938ca41d3cU, 0xa48f96014cc798e7U, 0x9c370ff621bec248U, 0xdcc912b4eae6f5ffU,
  0xf9df320c94324800U, 0x3c8819f49e09aec3U, 0xa34b4af602c81e1U, 0x17ce0f2e93a5ff97U,
  0xadc58ab99f0b033bU, 0x8ae58818e53cd705U, 0x9ba19349972af4b9U, 0xb781c121174f142cU,
  0xa4d72ac28f904e2dU, 0xc0dbde97421f55acU, 0x9017be03c5ef3818U, 0xa7e446834df7af07U,
  0x24ebf7fce0084781U, 0xabbdb083ad8d3a2U, 0xb3fee100b3a4a108U, 0xd3b5400dc24fc09eU,
  0xc53c4f2fcd9dd0c3U, 0xcd241cbed612cc3dU, 0x9ee2f018b007fbd9U, 0x2c37031c273e9cefU,
  0xff98b80d0ee13aa7U, 0xbd05fb120ff428d5U, 0x93f3b90ef9101a04U, 0xd725c440a800e2faU,
  0xf35bb94ecef3d40U, 0x2b28b01c4914d05aU, 0x3be8280acac6d307U, 0x588df1a928a3ffbU,
  0xe0b419333081dbb4U, 0xb490c6c11da393deU, 0xd74ff826c0b91638U, 0x10fd94920713299eU,
  0xccbba937f7fafcf6U, 0xd593d9041486911eU, 0xa2e708d43693cccaU, 0xfc2124ea3e1b2f3bU,
  0xe6a6a10786ee38edU, 0x29a1b9390a368dbaU, 0x95ac0dd42b2e259bU, 0xafb53da33d26413dU,
  0xac5437bdeb03c6d7U, 0xd8d41dfd09c60da3U, 0xeabf14f4afffe030U, 0x3ff8ce681294643U,
  0xbff733b7b2405dc6U, 0xe5b7cecb609993f5U, 0x83c9bd97e8cf6e32U, 0xbe29041a00acefb9U,
  0xbaa72f5ab4d2bc63U, 0xc23a6afd8cbb0c1U, 0xcd1fb920101e9543U, 0x4426f111fe8eb247U,
  0x28470384e931455bU, 0xf443f8b2dd272019U, 0x302e0c1c4fefc69bU, 0xc5242f0991d9ba23U,
  0x70e182fcf200a23U, 0xafd75c2105ee2503U, 0xfa1e001124f242ffU, 0x4d83350704b01cd7U,
  0xff232e06f3c82db7U, 0x8fa00f4e22b35f2U, 0x74caf9eaa54103bdU, 0x4a655edc393321f4U,
  0xf29dd2f5e535cbf9U, 0x24be1a10c0f1130cU, 0x37e967570d2bd434U, 0xedfd2eee157fecf0U,
  0xbf3d0b171fa6cf0fU, 0xfa185f1a3df6353eU, 0xc2f032f8ace92a0aU, 0xfc2e04f925f07ff2U,
  0xf01bca0d0eeceef2U, 0xcfdcf0fcec173c3cU, 0xc9cc0463d5151fdfU, 0xdc4fd20118000526U,
  0x14ff0017cc1ac90aU, 0x27e2f018222104fdU, 0xe2d2742b00310f0U, 0x1df0fd38dce6e024U,
  0xf51a1917ee1c2af7U, 0xf6f1151e24fc1d05U, 0x314a31e013141e12U, 0x14f4e6d026c431e7U,
  0xa93be7e8decedd29U, 0x26f3811ce6cd37e2U, 0x1a0c060b13f3d1daU, 0xe469da122b1d8b2bU,
  0x3019b31b140b22d2U, 0x59e0b2318351c28U, 0x10949a08fa31ce17U, 0x48ca4626df39ad89U,
  0x7f1201d191013e3U, 0x1403e75655d64038U, 0xe92fe6e120d45208U, 0x35be39f20f012e0aU,
  0x5d6dfffd1f9403fU, 0xed30fd1f2edfe2efU, 0xb7da3aeedb2ef216U, 0xbd580ef9dc032cdfU,
  0xfdeeec25f60e11ddU, 0x1fd44744d9e501e6U, 0xfcccfbf3162211fdU, 0xd107021deadf25d2U,
  0x4f90cfdfafe2ecf0U, 0xf3f407ebe0164603U, 0x9d5d1fc380d38f0U, 0x116f8e6d3133038U,
  0xfc331d04f1e1f700U, 0x432626db2efdf9b5U, 0x70b55b6132f3717U, 0x421bc9f1554bd6fbU,
  0xebd820f60adb03ffU, 0x81b8edea0614ee0dU, 0xd7e701e90dd1dd2dU, 0xcde2d9e331f0caecU,
  0x1817b6fd24df87e1U, 0xbf8ea99e211cb1fcU, 0xf5b5e4d29e4d019cU, 0xb2e9c2aefebfa7ddU,
  0x791fea3de34d19dU, 0x27f4f381c9f2ac8cU, 0xfec4420b8f404540U, 0x14f29e1983f4711U,
  0x8b49b593fdf2fb90U, 0xa336a5ab449898e8U, 0x8b0f36dc3edfee38U, 0xb9259ea995f5061cU,
  0xa6c8d3a6b451f6d6U, 0xa2da98e8a197adcaU, 0x172f65b496fad838U, 0x49dff31804f4f217U,
  0xd5e24014dcec1424U, 0xff0916a40fc2fe27U, 0xeb7bd6071a0930f6U, 0x1c0673fbfdda14c5U,
  0x255151da43213b2aU, 0xe743390d1bd92908U, 0xbf40508da1f0cfbU, 0x9d1f2fdebf4d0f1U,
  0xe010c231f3b4ee21U, 0x21317ae2264bd6b6U, 0x6f5ee32223e3312U, 0x3e7fcf291a04e364U,
  0x392826e445d3e83cU, 0xe90110e10be7ff05U, 0x1adaee3fedf4af15U, 0x6600fca1ea27c63cU,
  0x5110fba30336ddecU, 0xaedef5b5d3dbd7d3U, 0xaf4bc006d312c13U, 0x332acc31fd320801U,
  0x122c50eb36083541U, 0xd80740473081b5edU, 0xc045ccd022380c0dU, 0x4a85b01df43926f3U,
  0xb041ebf91f35e7f6U, 0x53c4d114fc9ec2d9U, 0x7bfc658fb4bc3eeU, 0x3129251106f3ee16U,
  0xfcf1ae5fffdb02e6U, 0xcbc8f90e1caffc50U, 0xfe410b14e4dc937fU, 0x70fae831faee24f9U,
  0x17532ad0c422cafeU, 0xf7019c3dcef11330U, 0x14baf735e0dcad12U, 0xe7d72038e40b88fbU,
  0x19a7c3bf7d635cf8U, 0xd4ea12c020fd3545U, 0x6024006042200c1U, 0x13e2f8238b93fb32U,
  0x94331b1e4d93804U, 0x18e10ae8ba49fac4U, 0x3e1050effdfa0d8eU, 0xbd50c104e152205bU,
  0x4fae9f93fafeef10U, 0xaed59a88a7955e92U, 0xf5feb84d28a9cf27U, 0xaad961a38ed9d4deU,
  0xb34df492fdb8b650U, 0x8145fdd8c727a400U, 0xd3ded62cead3f089U, 0xbe072a35e518b2bU,
  0x15dba2c34713f00fU, 0x3b9633b51bd08636U, 0xc3a35fd8b4881ad0U, 0xb4c51a8fc2411dd1U,
  0xb60736e2eff3c3f5U, 0x9ec620beb694cbaaU, 0x4fb4c797123752dbU, 0x9da1b30e3b0f89c7U,
  0x30d818a8141ef33eU, 0x9a403e3ad1dd2ba3U, 0x12889b8701f941feU, 0xf0ac8d968ac8cf56U,
  0xf31bf230c5088ee8U, 0xefcd473ab6dae2e0U, 0xdbdb0d48c9e9b688U, 0x48861c9e82b70b1bU,
  0x201eb4c4dd9cbed3U, 0xe0ce11e5e6ef3450U, 0x522a8cb4cafcf2e3U, 0xdb22dcf8e1d7893aU,
  0xd444410bcd0ee340U, 0xeca4c21e56bfe081U, 0x31293385318c47U, 0xe917e98995d5ab03U,
  0xed2ee4ae6bbd2a0U, 0x8a20a1c1c625aed0U, 0xbcad40818368fbcU, 0xa0289688c9c30688U,
  0x51c992129edd34aeU, 0xbe05addf071e27bfU, 0x421c97f088f1058eU, 0x813b8d1038ed3740U,
  0xff1491e9c3870da4U, 0xa1f7983e57cba2e4U, 0xc2d73ed0fb8ab5b9U, 0xd9ab0831ffb9ef4aU,
  0x1a32d02e501ccec7U, 0xe201211fdc3b2fdfU, 0x325f2f6ec0ff8d9U, 0x30dc461bd157e281U,
  0x500b2fffa5ed4622U, 0x21ffdd15f6e65201U, 0x3aded0cd1f118f7U, 0xe8db0809c1d1f1edU,
  0x35df00c921d32b25U, 0xd230bad509231000U, 0xe7c23b1a2001f7cfU, 0x3446053cefd80beaU,
  0xdbef46def90be3feU, 0x11c1cedd40e3dd3U, 0xf5d0f41f074912e9U, 0x1625f1e6e3e4f9efU,
  0xc5dc375edd002ffaU, 0xffa74624f01a42fdU, 0x89f23434f6f9382eU, 0xe281c6ede7f7f029U,
  0xc1e7b20dd30a23ffU, 0x20f3f83a00013653U, 0x2929e23b21470f12U, 0x100c63cbe7404b36U,
  0x17ad4ee2ff3596e1U, 0x2c6267d6d5081dcdU, 0x34d0ea2dee47eff1U, 0xd02b09f5ed7e4d42U,
  0xdfcc1b3d0f9b21f8U, 0xd3e21cf946e3e065U, 0xcc741ff2eba55617U, 0xf647f3b9a5d58698U,
  0xb83403b4b3901bd0U, 0xb71c5263b8274224U, 0x2a09f2d4df9f2e3eU, 0xddb955fd21b2ffa2U,
  0x1f73c1dc1660ea6fU, 0x55e0a9cf46b7a689U, 0x21b770b91391c7a7U, 0xf2c99173db6db41cU,
  0xbf2d0f94d84f0bb3U, 0xc516ec813c27dfbfU, 0xc0ccc668b1f6df20U, 0xf270900e5427d683U,
  0x2390aec88f8ce1faU, 0x420fab3e16ff13eaU, 0xf01f16ec2851f036U, 0xce4fe7f46522dca9U,
  0x4ae64f4b0a40579eU, 0x5d4c7f1b11052ee3U, 0xf0b20405112cf850U, 0xb8ef1735f2dcd118U,
  0x3cff7191b0f333eU, 0xdcbecaa8c4cc3891U, 0x4850edc7cbd8cc1eU, 0xfb0ce8c0e4f0c8a2U,
  0xec2aca4be81207b3U, 0xc0eba5beeaad2b13U, 0x21c7fd890d0107c3U, 0xeca2143dfd3a17e5U,
  0x23023bcdc061a1cU, 0xe2c240dae2ea96b0U, 0x29bc5bd736d9d8ebU, 0xda11effbf67f0095U,
  0x1fd8feec17c435ffU, 0x5547fb0be9f83337U, 0xf1f11102ef52db1U, 0xef3de0fb31d62b50U,
  0x49f33dc721b4bbb6U, 0x2e3cf50045b8f501U, 0x13b94820173ff0a9U, 0x953aec2513e0e5ddU,
  0xd4d0f4f60127cbd5U, 0xdc2cf6a5c00be5ebU, 0xace90a5a446422e2U, 0xb1ea3bcde3ef0104U,
  0x854cf6113446a29dU, 0xb8c50eaacedbfcb9U, 0x43b7f5d23a4946e8U, 0x53928e4088c312dfU,
  0x24904ce72a30a19aU, 0x3b901d92a2ee4bfbU, 0xa1bd163be9e11314U, 0x3b4a3d9ecc02b0caU,
  0x1012d0989ab9a797U, 0x4841ad9727944697U, 0x99b51e8050e25daU, 0x813a3fadf6a20ccfU,
  0x35ae64588b8bd2eU, 0x87b551b790c09ec5U, 0xe9f0d72cd82d070cU, 0x15fbe8c4d1e75444U,
  0xfe2cad1b0e8c455U, 0xc22db4bdd9cfbb3eU, 0x8d2d22e5c90707beU, 0xe604acecc412a350U,
  0x1ca8ef292bf18119U, 0xf8e517ed19d3fbf1U, 0x7d2c81752471622U, 0xd4c33afccfac7539U,
  0xbe6df6ed41a3b21dU, 0xcebf32b2d2ca5753U, 0x2cfa6130093a51f3U, 0x38df18aad2da011bU,
